[PAD]
[UNK]
[START]
[END]
!
"
#
$
%
&
'
(
)
*
+
,
-
.
/
0
1
2
3
4
5
6
7
8
9
:
;
<
=
>
?
@
[
\
]
^
_
`
a
b
c
d
e
f
g
h
i
j
k
l
m
n
o
p
q
r
s
t
u
v
w
x
y
z
{
|
}
~
¡
¢
£
¥
§
©
«
¬
®
°
±
·
»
¿
×
æ
ð
÷
ø
þ
đ
ħ
ı
ł
ŋ
œ
ƒ
ɑ
ɔ
ə
ɛ
ɣ
ɨ
ɪ
ʀ
ʃ
ʔ
ʻ
ʼ
ʾ
ʿ
ˈ
ː
α
β
γ
δ
ε
ζ
η
θ
ι
κ
λ
μ
ν
ξ
ο
π
ρ
σ
τ
υ
φ
χ
ψ
ω
а
б
в
г
д
е
ж
з
и
к
л
м
н
о
п
р
с
т
у
ф
х
ц
ч
ш
щ
ъ
ы
ь
э
ю
я
є
і
ј
љ
њ
ћ
ӏ
ա
բ
գ
դ
ե
թ
ի
լ
կ
հ
մ
յ
ն
ո
պ
ս
վ
տ
ր
ց
ւ
ք
א
ב
ג
ד
ה
ו
ז
ח
ט
י
כ
ל
ם
מ
ן
נ
ס
ע
פ
צ
ק
ר
ש
ת
״
،
ء
ا
ب
ة
ت
ث
ج
ح
خ
د
ذ
ر
ز
س
ش
ص
ض
ط
ع
غ
ف
ق
ك
ل
م
ن
ه
و
ى
ي
پ
چ
ک
گ
ہ
ی
ः
अ
आ
क
ख
ग
च
ज
ट
ठ
ड
ण
त
थ
द
ध
न
प
ब
भ
म
य
र
ल
व
श
ष
स
ह
ा
ि
ी
ो
।
ক
গ
জ
ত
দ
ন
প
ব
ম
য
র
ল
শ
স
হ
া
ি
ী
ে
ਰ
க
ச
ட
ண
த
ந
ன
ப
ம
ய
ர
ற
ல
ள
ழ
வ
ா
ி
ு
ெ
ே
ை
న
ర
ల
ు
ಂ
ಕ
ಗ
ತ
ದ
ನ
ಮ
ಯ
ರ
ಲ
ವ
ಸ
ಾ
ು
ೕ
ം
ക
ട
ത
ന
പ
മ
യ
ര
ല
വ
ാ
ി
േ
ක
ත
ද
න
ප
ම
ය
ර
ල
ව
ස
ා
ෙ
ก
ข
ค
ง
จ
ช
ด
ต
ท
ธ
น
บ
ป
พ
ม
ย
ร
ล
ว
ศ
ส
ห
อ
ะ
า
เ
แ
โ
ไ
་
မ
ა
ბ
გ
დ
ე
ვ
თ
ი
ლ
მ
ნ
ო
რ
ს
ტ
უ
ᄀ
ᄁ
ᄂ
ᄃ
ᄅ
ᄆ
ᄇ
ᄉ
ᄊ
ᄋ
ᄌ
ᄎ
ᄏ
ᄐ
ᄑ
ᄒ
ᅡ
ᅢ
ᅣ
ᅥ
ᅦ
ᅧ
ᅨ
ᅩ
ᅪ
ᅬ
ᅭ
ᅮ
ᅯ
ᅱ
ᅲ
ᅳ
ᅴ
ᅵ
ᆨ
ᆫ
ᆯ
ᆷ
ᆸ
ᆺ
ᆼ
ក
ន
រ
ស
ា
‐
‒
–
—
―
‘
’
‚
“
”
„
†
‡
•
‰
′
⁄
€
₱
₹
←
↑
→
↔
⇒
∈
−
∗
∞
∧
∨
∪
∴
≈
≡
≤
≥
⊆
⋅
─
│
●
★
☆
♠
♦
♭
⟨
⟩
、
。
《
》
「
」
『
』
〜
あ
い
う
え
お
か
き
く
け
こ
さ
し
す
せ
そ
た
ち
っ
つ
て
と
な
に
の
は
ひ
ふ
へ
ほ
ま
み
む
め
も
や
ゆ
よ
ら
り
る
れ
ろ
を
ん
ア
ィ
イ
ウ
ェ
エ
オ
カ
キ
ク
ケ
コ
サ
シ
ス
セ
ソ
タ
チ
ッ
ツ
テ
ト
ナ
ニ
ネ
ノ
ハ
ヒ
フ
ヘ
ホ
マ
ミ
ム
メ
モ
ャ
ヤ
ュ
ョ
ラ
リ
ル
レ
ロ
ワ
ン
・
ー
一
丁
七
万
三
上
下
不
世
东
中
主
之
乐
九
乡
事
二
五
井
交
京
人
亻
仁
代
伊
会
何
作
你
佳
使
侍
侯
保
信
傳
元
先
光
克
全
八
公
六
兵
典
内
出
分
利
前
劉
力
加
動
化
北
区
十
千
华
南
博
原
县
友
口
古
可
台
史
司
合
吉
同
名
后
君
吳
周
命
和
唐
嘉
四
回
国
國
園
土
在
地
城
基
堂
報
場
塘
士
夏
外
多
夜
夢
大
天
太
夫
头
奇
女
好
如
子
字
学
孫
學
宇
守
安
宗
官
定
宮
家
宿
富
寶
寺
將
小
少
尔
尚
山
島
川
州
工
巴
市
帝
師
常
平
年
广
庄
店
府
度
康
建
式
张
張
影
後
徐
德
心
志
忠
思
情
想
愛
成
我
戦
戸
所
手
技
拉
政
教
文
斯
新
方
族
日
昌
明
星
春
昭
是
時
景
曲
書
最
會
月
有
朝
木
本
朱
李
村
来
杨
東
松
林
校
桥
梁
梅
楊
業
樂
歌
正
武
比
氏
民
水
氵
永
江
沙
河
治
泉
法
波
洋
洞
津
流
海
清
港
湖
源
溪
漢
火
無
版
物
特
犬
玉
王
球
理
生
田
男
界
白
百
的
皇
目
相
省
真
知
石
研
社
神
福
秀
秋
科
究
空
立
章
竹
第
等
紀
經
縣
红
羅
美
義
老
者
聖
育
胡
自
興
良
色
花
英
華
葉
藤
虎
行
街
衛
西
要
見
親
解
言
記
語
論
语
谷
路
車
軍
通
道
那
郎
郡
部
郭
都
里
重
野
金
鉄
镇
長
长
門
間
阳
阿
陈
限
院
陳
陵
陽
隆
雄
集
雲
電
青
音
頭
風
飛
食
館
香
馬
駅
马
高
魔
黃
黄
龍
龙
龸
ꞌ
the
of
in
and
to
was
category
is
for
as
on
by
with
from
he
at
##s
that
his
it
an
were
also
are
which
this
be
first
or
new
had
has
one
##a
references
their
after
its
who
her
but
she
not
##e
two
people
they
american
have
been
all
other
##i
time
when
school
during
##o
university
united
##n
into
may
world
year
national
there
state
external
links
city
states
more
up
born
##ing
years
over
##d
film
only
##t
players
de
##r
south
three
would
most
between
later
no
where
about
county
##y
out
season
some
team
war
can
under
century
history
series
then
him
made
used
##er
second
known
such
part
while
north
##ed
##l
league
see
many
music
high
than
became
district
football
these
including
being
through
family
before
life
well
group
john
both
early
10
international
against
living
films
york
british
album
since
house
company
work
area
name
until
game
however
west
them
women
2010
based
career
march
september
four
number
october
births
following
college
government
january
games
released
club
english
played
general
june
##ly
2011
align
2008
july
##m
will
august
day
april
##u
several
november
2009
former
called
2012
best
won
2006
2007
december
list
000
center
##k
##h
place
members
east
##es
12
##on
2014
2013
television
right
public
party
member
##us
church
same
##c
each
so
left
2015
home
song
town
february
end
station
now
use
line
2016
found
french
system
service
st
if
20
river
named
15
president
located
long
2005
final
established
11
18
population
order
band
began
major
like
german
held
back
age
##an
2017
men
show
london
local
##g
art
around
built
law
2004
single
air
division
award
because
set
player
any
village
old
association
army
death
five
2018
book
ii
due
took
park
class
2000
third
species
##ia
died
building
published
another
16
children
##p
education
did
14
along
##en
main
30
served
within
13
could
received
road
cup
last
country
off
central
top
small
king
military
2003
##man
white
la
style
large
great
you
official
25
us
development
2002
times
include
17
2001
said
community
although
##in
man
language
black
son
male
own
research
court
play
water
england
california
record
australia
championship
council
what
royal
##al
original
video
described
those
union
2019
side
deaths
very
included
director
still
field
political
according
power
##is
24
island
william
street
songs
western
works
near
department
down
track
summer
father
production
##2
round
km
co
records
radio
among
places
site
19
non
late
##1
often
21
society
france
head
led
australian
form
james
produced
million
further
1999
six
india
election
just
title
##z
way
land
written
##b
george
awards
different
office
do
region
again
indian
railway
moved
albums
services
short
san
canada
young
live
much
america
force
business
story
22
support
1998
##3
european
point
professional
role
even
##ra
version
given
canadian
make
act
present
social
##f
science
students
23
period
##na
northern
created
next
website
using
we
red
having
100
david
program
1996
museum
open
total
various
al
1997
level
started
press
married
bgcolor
came
love
project
went
germany
rock
design
##v
hall
events
##te
##le
special
lost
26
28
schools
become
##4
take
books
southern
1995
board
minister
27
without
win
free
##ta
japanese
kingdom
announced
1994
tv
1992
run
teams
##ers
##5
founded
##x
historic
buildings
per
full
days
id
robert
province
japan
##ic
post
alumni
information
worked
joined
china
control
police
battle
half
uk
opened
together
20th
1993
lead
release
modern
washington
##la
wrote
##6
returned
race
health
italian
recorded
few
sports
##ne
media
##0
chief
##th
lake
notes
paul
thomas
29
little
match
1991
arts
1990
institute
re
position
every
groups
though
human
charles
russian
areas
elected
case
tour
points
my
directed
star
footballers
stage
making
event
wife
episode
companies
##ton
civil
##8
how
eastern
academy
europe
common
playing
continued
data
popular
forces
once
current
michael
completed
working
##7
term
festival
female
considered
others
good
african
1989
mother
##9
##ie
debut
1988
route
basketball
results
character
developed
gold
##um
grand
republic
similar
construction
important
performance
light
centre
sea
olympics
originally
night
appointed
appeared
spanish
formed
committee
training
signed
coach
background
news
seven
type
fire
never
aircraft
50
texas
result
example
chinese
body
upon
31
network
africa
roman
himself
average
green
stations
rights
space
1987
studies
artists
com
##w
away
##ma
go
personal
1986
daughter
singles
middle
currently
available
##da
ireland
cross
1984
saint
addition
technology
census
magazine
peter
brother
study
culture
me
across
los
henry
championships
##ar
federal
1985
big
tournament
medal
zealand
catholic
medical
action
private
##ch
throughout
features
artist
return
1980
range
management
conference
##os
professor
sold
performed
writers
##ka
baseball
theatre
section
model
musical
should
richard
includes
independent
paris
low
designed
front
1983
singer
process
less
despite
get
does
40
guitar
week
christian
taken
hill
eventually
bank
1982
killed
competition
car
eight
largest
studio
##ian
##as
birth
virginia
library
fourth
##re
help
text
coast
listed
##ism
1st
months
must
##ist
navy
related
brown
1979
olympic
ten
leading
blue
real
systems
featured
writer
gave
mexico
smith
movement
bay
edition
officer
followed
senior
organization
chicago
finished
campaign
actor
collection
1981
hospital
primary
governor
valley
today
awarded
seen
1972
usually
cast
base
change
vocals
1976
winning
soviet
families
bridge
author
politician
shows
industry
reported
capital
dr
instead
1978
countries
novel
natural
foreign
leader
italy
parliament
above
mary
lower
1974
##rs
remained
close
notable
introduced
mark
establishments
ground
attack
irish
refer
units
pennsylvania
historical
##ry
reading
##ng
producer
1975
thus
1968
1970
regional
woman
assembly
market
florida
1977
previous
##ri
child
ship
characters
empire
either
##el
able
involved
operations
hockey
register
trade
added
review
bill
1973
degree
writing
1945
19th
##ley
rugby
size
sent
van
##ville
replaced
native
energy
channel
future
via
1971
economic
angeles
wales
mid
least
foundation
sources
sir
standard
1969
food
provided
staff
municipality
scored
student
regular
unit
missing
previously
mountain
commission
##ity
martin
drama
soon
airport
##or
higher
rather
captain
owned
islands
seasons
operation
selected
person
carolina
greek
date
secretary
beginning
mount
don
1967
##ur
behind
plays
limited
executive
outside
almost
parts
square
russia
security
##ya
additional
placed
ice
active
stated
1964
start
self
queen
joseph
structure
below
manager
cultural
goal
whose
engineering
report
##ki
youth
far
##land
##ha
reached
provide
interest
success
saw
come
too
money
lord
individual
command
2nd
fc
sometimes
sound
our
prince
prior
1966
1965
programs
louis
ships
spain
ever
el
put
master
annual
dutch
traditional
commercial
hand
1960
democratic
approximately
defeated
decided
rural
contract
possible
jewish
successful
location
##ey
hit
prize
journal
##de
elections
anti
scottish
value
running
le
##ine
##ted
runs
cities
##ro
houses
asian
plant
biography
##son
religious
21st
taking
attended
brought
policy
silver
course
personnel
strong
winter
genus
lived
complete
movie
administration
test
past
here
township
property
especially
highest
prime
plan
closed
##j
bishop
online
fiction
theory
associated
names
changed
ohio
goals
##et
dance
##ness
towards
page
500
access
##ni
wide
highway
congress
edward
loss
source
iii
shot
issue
article
generally
peak
initially
1963
issues
significant
lee
financial
1944
1962
stone
nine
seat
##se
michigan
regiment
opening
matches
justice
legal
gallery
mission
launched
footballer
engine
room
practice
comedy
jersey
god
junior
##able
pacific
lines
length
itself
recording
feature
key
overall
transport
bass
represented
tracks
mr
port
computer
activities
victory
means
##ies
ended
allowed
faculty
heart
forest
whom
poland
chart
fort
scotland
##am
winner
required
earth
find
assistant
actress
met
ancient
better
digital
sister
1961
super
champion
nations
villages
minor
contains
cover
1942
earlier
stars
stadium
month
uses
castle
literature
1956
illinois
decision
##ge
nature
##ca
polish
note
chairman
et
##ts
income
clubs
1948
politicians
architecture
famous
appearance
columbia
sportspeople
1958
corps
1959
spent
score
communities
##ter
speed
britain
wing
complex
numerous
editor
structures
actors
noted
200
changes
move
boston
word
jones
organizations
georgia
expatriate
your
temple
1943
era
voice
##to
asia
retired
hours
winners
going
1939
older
commander
massachusetts
1957
fall
1940
##ke
friends
1941
officers
upper
ran
1950
train
double
parish
creek
1946
##ll
operated
entered
give
champions
##ting
finally
already
status
pre
terms
thought
1952
jack
rest
60
sport
care
majority
45
fight
flight
##li
1955
vice
got
starting
##sa
stories
populated
1947
musicians
##ion
subsequently
friend
francisco
girl
cases
camp
##ga
fifth
increased
##no
fact
meeting
ed
volume
##ti
oil
##ck
jr
husband
becoming
evidence
turn
opera
episodes
view
##ling
williams
alexander
border
studied
software
1954
hotel
35
minutes
rate
takes
##ham
academic
material
politics
caused
ministry
##do
frank
girls
1953
jean
serving
need
spring
relationship
mostly
recent
profile
web
create
##io
multiple
1949
particularly
contemporary
3rd
##st
johnson
variety
articles
entire
von
65
mayor
1980s
fellow
certain
remains
##ner
branch
israel
medalists
marriage
always
latin
##ns
marine
##ce
racing
forced
products
tom
oxford
specific
shown
heavy
dead
piano
color
##ba
featuring
victoria
code
face
1951
representatives
call
supported
defense
appears
##ko
squadron
broadcast
surface
pop
dark
des
territory
presented
##ja
global
brothers
##ation
golden
passed
particular
32
swedish
cost
##men
##va
naval
beach
cd
greater
weeks
scott
effect
finals
forms
plot
bbc
del
experience
##nt
grade
workers
sun
##tion
raised
founder
deal
competed
descent
referred
appearances
leaving
critical
longer
##wood
hong
parents
entertainment
towns
larger
1936
secondary
kong
subject
##co
distribution
response
composed
corporation
usa
1970s
languages
latter
failed
urban
increase
memorial
formerly
claimed
novels
electric
senate
##ment
authority
1918
1990s
##less
soccer
daily
individuals
jazz
newspaper
judge
joe
metal
host
lives
tower
troops
administrative
##ov
republican
sydney
peace
provides
relations
themselves
problems
earned
districts
1938
sciences
miles
maria
proposed
berlin
hot
meaning
direct
separate
table
words
mixed
##ized
premier
korea
boys
classical
##ble
inside
acquired
rules
##field
believed
##ina
##ous
lieutenant
extended
mountains
emperor
##berg
helped
duke
lady
fish
physical
am
affairs
ontario
korean
campus
offered
pro
1937
vote
infantry
heritage
description
influence
done
brazil
mainly
boy
nation
reserve
therefore
wall
industrial
nearly
plans
remaining
mass
paper
der
www
rule
makes
carried
educational
mike
promoted
projects
numbers
distance
soldiers
##hi
parties
turned
pass
consists
solo
elements
1920
estate
00
cambridge
covered
iran
conditions
attempt
interview
cricket
##id
races
cause
##wa
engineer
enough
toronto
function
du
scientific
supreme
publications
quality
##ford
plants
1935
nearby
leaders
1960s
##ty
responsible
label
residents
analysis
80
housing
draw
leave
statistics
scene
linear
wood
settlement
blood
vol
documentary
effects
http
reception
unknown
technical
##at
yet
listing
cut
philadelphia
minnesota
1930
true
might
pakistan
orchestra
issued
serve
publishing
whether
whole
acting
rose
semi
survey
1919
avenue
##by
stop
discovered
crew
santa
chris
agency
wisconsin
crime
bronze
constructed
drive
iron
1914
exchange
levels
pp
hard
treatment
growth
graduated
sites
facilities
##di
doctor
candidate
1933
netherlands
composer
environment
rail
managed
wanted
told
renamed
1929
tree
90
formation
1928
33
allow
internet
org
cars
jackson
horse
directly
1934
prison
gas
deputy
types
letter
asked
liberal
indiana
rivers
elizabeth
leadership
image
sex
1917
primarily
en
steve
agreement
trial
males
die
medicine
advanced
machine
##der
moving
transferred
figure
1932
arrived
70
economy
##ler
operating
geography
equipment
farm
gun
comes
direction
drums
teacher
lies
ball
forward
wilson
idea
draft
designated
##za
bob
guard
revolution
format
##ive
bibliography
sweden
poet
box
arthur
inc
protection
bc
battalion
saying
basic
models
honor
likely
bus
highly
norwegian
representative
concert
poor
initial
females
railroad
garden
officially
fame
mexican
fighting
44
safety
4th
titles
36
appear
comics
revealed
1931
34
fleet
##it
institutions
positive
andrew
1924
##q
atlantic
prominent
missouri
singers
cancer
store
e9e9e9
travel
grant
product
becomes
di
coming
know
1922
jim
immediately
dedicated
daniel
joint
1927
##ius
combined
titled
transportation
shortly
method
morning
deep
churches
kansas
principal
activity
resources
typically
labour
ray
windows
produce
murder
charts
zone
tax
tennis
owner
taylor
recently
keep
households
##go
charge
##ite
alongside
headquarters
fine
independence
block
miss
meet
capacity
nominated
bar
lack
commonly
floor
reviews
focus
smaller
things
basis
rome
jose
arms
twenty
participated
oregon
conducted
hosted
job
divided
reference
ordered
concept
environmental
fm
brigade
continue
1912
climate
generation
organized
##ji
planned
1921
cemetery
1925
quarter
percent
pay
poetry
sons
scale
##lo
francis
removed
destroyed
hour
impact
hold
legislative
leaves
intended
critics
platform
disease
##ve
probably
1926
##il
median
ability
turkey
quickly
cell
except
grew
knowledge
freedom
literary
defeat
##ff
build
1923
##ier
federation
potential
##ee
follows
64
##well
learning
municipal
theater
colorado
content
imperial
yellow
applied
giving
pressure
davis
vs
reach
##rd
norway
alone
approach
2020
challenge
starring
38
problem
programming
guest
captured
##les
conservative
##ization
##ps
clear
efforts
purpose
traffic
fox
ocean
tennessee
18th
price
firm
exhibition
assigned
let
##pa
secret
needed
creation
account
stephen
purchased
split
roles
1910
##me
origin
squad
trust
1916
1915
##lla
painting
flying
nuclear
join
sales
religion
theme
entry
##ot
teaching
##tes
##ria
steel
beyond
##mi
search
ranked
compared
attention
labor
sixth
adopted
maryland
positions
sri
arizona
##ate
reports
holy
alternative
fefefe
offers
communist
philippines
75
letters
##lin
classic
declared
serves
mm
directors
harry
agent
combat
southeast
younger
goes
amount
educated
respectively
wrestling
widely
metropolitan
actually
storm
lewis
feet
versions
mile
falls
palace
begins
yards
1913
growing
animals
laws
mentioned
37
##ping
something
scoring
tony
coaches
philosophy
votes
map
planning
1900
materials
memory
yard
earl
publication
athletics
intelligence
performances
northwest
break
queensland
estimated
damage
largely
gained
moscow
journalist
czech
turkish
regions
colonel
etc
accepted
300
##ad
recognized
weekly
twice
ring
##ah
armed
kentucky
musician
fell
seats
agreed
##den
fields
simon
42
presidential
presence
melbourne
attacks
officials
opposition
guide
##nd
1911
convention
performing
wild
walter
cape
look
##ze
constitution
5th
facility
birds
inspired
pilot
1950s
trains
##town
brazilian
acts
difficult
bad
iowa
ben
minute
crown
defence
occurred
vehicles
promotion
stand
density
suffered
austria
share
remain
read
1908
studios
say
quebec
expanded
providing
stock
vehicle
animal
##ger
##line
taught
wins
portuguese
reduced
says
bell
lyrics
paid
christmas
surrounding
brian
risk
claims
choice
##un
actresses
alliance
commonwealth
##han
classes
albert
##tic
properties
jews
identified
drug
les
citizens
buried
supporting
##way
continues
artillery
unique
dynasty
expected
electronic
##que
resulting
mobile
athletes
defined
vietnam
gives
resulted
##burg
48
situated
losing
phase
d6d6d6
400
express
rise
spread
piece
newly
israeli
anderson
brand
painter
existing
39
figures
billboard
hills
manchester
##ful
trees
miller
programme
supply
tells
41
swiss
granted
felt
##ists
allows
finish
couple
boat
offer
fund
architect
cannot
cells
receive
surname
##ky
sexual
returning
tropical
elementary
want
transfer
heat
iv
tradition
wars
##ard
sunday
graduate
kept
adult
powers
##tor
hands
kitt
nfl
##ea
##be
bowl
authorities
greece
da
howard
switzerland
household
count
methods
simply
application
card
conflict
##idae
oklahoma
provincial
connected
ltd
wind
recordings
introduction
edge
universities
##ny
danish
hungarian
develop
americans
pope
sign
permanent
singapore
55
injury
##sen
multi
comic
ad
spacewatch
oldest
normal
ward
glass
rank
fully
antonio
broadcasting
visit
communications
partner
kind
examples
historian
fictional
interior
simple
##ai
sides
driver
criminal
disambiguation
billion
alabama
##sky
reason
socorro
17th
confirmed
sam
colonial
chapter
aired
foot
honours
bring
tried
containing
##age
founding
showed
52
##ay
rear
screen
subsequent
louisiana
beat
1909
obtained
chosen
audience
suggested
47
domestic
effort
roads
situation
follow
standards
agricultural
completely
##ura
blues
khan
1905
mind
1906
pictures
northeast
anthony
athletic
cold
metres
recognition
competitions
chamber
anne
commissioned
##ish
1907
patrick
ending
sets
succeeded
factory
marked
ford
expansion
rich
49
ep
fans
allowing
funding
lists
##ir
weight
effective
translation
hamilton
lane
greatest
weapons
pan
connecticut
houston
##au
sort
##ls
standing
sector
arrested
bureau
creating
maximum
km2
##sh
sense
identity
43
borough
egypt
austrian
argentina
eye
speech
douglas
candidates
internal
holds
achieved
investigation
tokyo
##bo
passenger
harvard
applications
why
guns
fighter
enemy
picture
un
paintings
##kin
circuit
necessary
unincorporated
cathedral
contest
ncaa
communication
gordon
conservation
##ak
worldwide
ends
occupied
attempts
fashion
dvd
prix
covers
sr
frequently
jesus
southwest
portion
chair
51
matter
moon
ex
##per
lot
detroit
##ium
1904
unable
agriculture
claim
retirement
locations
setting
attorney
mrs
kill
16th
treaty
46
sub
establishment
relatively
folk
entitled
archive
motor
belgium
puerto
##ally
##ini
actions
launch
bought
allen
motion
##ol
eric
pieces
shared
images
selection
diego
orange
core
chemical
holding
##pe
alan
aid
ali
approved
1901
needs
ultimately
seventh
frederick
lemmon
killing
perform
##ss
##house
##ds
1903
arab
powerful
violence
trail
visual
aviation
copies
##pur
muslim
montreal
fought
philip
##ana
hits
contact
settled
managers
banks
dean
edited
##led
gene
offices
row
animated
composition
qualified
stay
corner
max
refused
##ell
think
broke
mississippi
prevent
unlike
distinguished
functions
1902
mill
##don
ways
bachelor
straight
adam
chapel
extensive
twelve
question
talk
6th
clark
spirit
resistance
walker
dog
receiving
height
nothing
islamic
canal
denmark
details
rare
orders
##he
escape
fuel
dan
##ow
parks
streets
target
fair
display
juan
selling
representing
attempted
connection
outstanding
someone
attacked
converted
weather
write
pair
institution
aged
samuel
employed
princess
baby
reform
##ica
dropped
walls
medieval
derived
pages
senator
signal
visited
ukraine
bird
centuries
arkansas
protected
tamil
welsh
condition
hope
##ide
mine
fast
flora
cinema
broken
controlled
reality
advance
##ik
soul
##ised
moths
parliamentary
portugal
incorporated
link
miami
increasing
lincoln
##ara
believe
magic
begin
1930s
compilation
##ant
herself
electoral
faced
7th
focused
bands
determined
translated
classification
hungary
failure
incident
schedule
developing
mix
##jo
universal
door
marie
municipalities
amateur
metro
temperature
anniversary
opposed
kevin
economics
54
moore
dave
formula
kim
loan
productions
christ
golf
bottom
##bury
bodies
crisis
##ent
passing
reasons
speaking
existence
regarding
ukrainian
plus
collected
net
consisted
junction
grey
scenes
cricketers
specifically
finance
dublin
malaysia
arena
songwriter
flag
represent
scheduled
residence
investment
onto
rio
##est
refers
##si
negative
hundred
sale
cabinet
influenced
scholars
looking
abandoned
knight
budget
edinburgh
kings
jan
save
funds
lands
doing
und
1898
iraq
finds
divisions
engines
protein
dates
lawyer
occurs
slightly
constituency
consecutive
colleges
soundtrack
possibly
mining
counties
ethnic
dc
anna
##che
##mann
coal
physics
priest
trophy
entrance
dream
indonesia
carry
roger
engineers
tank
##dy
baron
step
shape
objects
views
cleveland
hollywood
meant
1899
teachers
invasion
recipients
flow
contributed
painters
##head
56
audio
organisation
53
manufacturing
diocese
serious
lawrence
registered
mathematics
users
chain
extension
95
trained
cycle
toward
collections
ministers
carl
##mo
utah
merged
ceremony
ryan
qualifying
session
strike
flat
composers
discovery
producing
shooting
contained
atlanta
ideas
really
successfully
eyes
employees
causes
##mer
patients
extra
none
##ney
##ul
heard
sky
duty
discography
1895
roof
bruce
enter
try
##ron
##ms
runner
legacy
trying
defunct
##ong
calls
belgian
1890
skills
##worth
singing
invited
protect
adjacent
address
partnership
tim
task
magazines
victor
values
equal
importance
finland
faith
passes
strength
1896
wave
pierre
medium
homes
emergency
1897
dam
##om
finishing
fantasy
poems
planet
sought
59
techniques
resigned
producers
statement
user
evening
mps
jordan
spot
neighborhood
##gan
inhabitants
scientists
involving
occur
baltimore
seattle
downtown
courses
##ize
jimmy
las
57
reaching
papers
alex
ross
expressed
quite
swimming
12th
##tt
laid
starts
courts
jane
pittsburgh
getting
decades
gay
kent
58
credit
##ut
margaret
##ial
hip
index
object
ma
harris
saints
maintained
promote
socialist
leg
voted
##tus
opportunity
li
orthodox
heavily
commune
romania
09
serbian
defensive
billy
##tte
documents
coastal
associate
persons
saturday
museums
factor
circle
consisting
device
##ii
shaped
avoid
##ries
string
08
13th
judges
8th
causing
russell
progress
2000s
headed
revival
exist
ottoman
improved
##ding
kelly
seconds
##bi
pool
romanian
proved
residential
injured
christopher
honorary
establish
underground
backing
installed
shop
brief
##chi
offensive
drawn
chance
adapted
stores
brain
hired
expedition
150
1893
1889
ahead
##dae
landing
improve
1892
contributions
abc
solid
calling
##ek
drivers
lakes
distributed
##lan
finnish
##res
humans
johnny
vocal
15th
##dale
99
sections
newspapers
engaged
gets
##ino
##ker
10th
typical
##ung
mp
85
joining
hampshire
bit
ranking
criticism
dallas
goods
worth
instruments
##ks
profit
vienna
1885
grounds
journey
perhaps
gender
entirely
commissioner
morgan
vision
matt
donald
compete
maine
describes
sequence
routes
wings
1894
communes
stating
ruled
05
doubles
insurance
norman
collaboration
venues
##ski
colony
dry
1891
path
costs
assistance
closely
observed
combination
photography
decade
accident
creative
alfred
##ux
indigenous
watch
singh
twin
designer
demand
endemic
sarah
orleans
stewart
crossing
nelson
satellite
beautiful
argentine
walk
##nce
owners
ceo
gray
legend
bridges
database
regarded
membership
actual
taiwan
poets
07
98
interests
gain
items
kennedy
broadway
fifa
bear
rating
thompson
gary
##ku
##ber
rowspan
understanding
14th
briefly
austin
adams
oblast
artistic
operate
leads
file
notably
seems
thailand
prefecture
##ons
nick
stages
purchase
habitat
gardens
formal
steam
starred
restaurant
revolutionary
universe
capture
wine
hunter
behavior
drew
premiered
driving
argued
franklin
additionally
affected
ones
everything
prisoners
reduce
01
9th
liverpool
reaction
ca
stanley
passengers
resolution
rice
##nes
jeff
06
terminal
editions
appeal
easily
##ran
1888
earliest
marketing
campbell
11th
gulf
concluded
carlos
designs
##zi
guitarist
opposite
heads
66
trip
volleyball
72
disc
genera
didn
attached
victims
committed
hero
peninsula
strategy
ann
returns
ambassador
organ
painted
salt
chile
participate
1865
reign
birmingham
storage
equivalent
soldier
jason
##vi
op
journalists
flowers
frame
relief
infrastructure
rescue
##ae
##rt
acid
adventure
legislation
hop
bush
masters
robinson
disney
fan
solar
poverty
ages
##ac
brooklyn
credits
filmography
##ated
colspan
mental
04
stands
controversy
scheme
1880
degrees
inner
chose
waters
rooms
wright
survived
factors
tell
il
contain
horror
historians
charges
##ring
sisters
bishops
nova
1887
ian
territories
honors
videos
accused
mean
##one
mode
camera
##and
credited
96
devices
roy
testing
##ped
fly
nba
marshall
portland
broad
laboratory
businesses
arm
tries
showing
regulations
murray
##sis
networks
thing
monument
measures
scholar
nazi
temporary
difference
lanka
dakota
franchise
liga
graham
request
ridge
andy
##cs
62
suicide
##ging
moth
thirty
fired
##des
##je
biggest
regularly
authors
robin
uncle
executed
feel
1886
eighth
matthew
otherwise
carter
nor
##im
angel
coalition
praised
operates
admiral
delivered
78
racial
charlie
corporate
tourist
88
1861
truth
cards
##ten
window
damaged
measure
symphony
guy
cable
cavalry
critic
##ang
wounded
yorkshire
baker
responsibility
arranged
apart
250
fred
springs
photo
1864
wayne
pick
script
allied
poem
##ary
bangladesh
shore
commerce
respect
publisher
fishing
turns
demographics
carrying
desert
dating
1920s
tourism
questions
debuted
maintain
plane
hair
charged
daughters
caught
600
ownership
fixed
parallel
03
width
gate
warren
represents
electrical
94
message
1884
97
occupation
uefa
context
severe
domain
advantage
chess
iranian
##gen
movies
experimental
madrid
rico
childhood
thousands
82
pattern
1881
egyptian
policies
77
##gi
coverage
landscape
meanwhile
1863
progressive
legislature
happy
zero
chemistry
roll
romantic
purposes
ny
##ram
centers
aspects
tribe
1870
learned
determine
gone
partners
snow
karl
##gate
charter
##ens
bears
hosts
medals
##ore
1862
rejected
sell
transit
replace
finding
restored
##hip
element
requirements
##ure
subjects
summary
portrait
coaching
extremely
contrast
duties
##lia
delhi
mills
eleven
glasgow
definition
attend
barbara
practices
##ova
agencies
richmond
serbia
hawaii
##ue
warner
silent
800
require
71
knights
airlines
distinct
speaker
beauty
02
brick
67
rapid
strategic
soil
63
festivals
evolution
businessman
technique
industries
abbey
battery
1882
solution
68
honour
meters
benjamin
limit
##ning
losses
mounted
victorian
restoration
merchant
76
opinion
linked
cbs
origins
92
cook
accompanied
markets
rising
railways
debate
employment
architectural
genre
components
forests
separated
channels
admitted
morris
arrival
depth
##gh
guinea
ve
expression
voivodeship
costa
skin
differences
giant
amendment
61
barry
frequency
easy
stood
afterwards
filled
remix
relative
##ata
dragon
boundary
print
basin
missions
youtube
retained
roughly
alaska
rain
constant
meets
safe
replacement
operational
friendly
mediterranean
93
##gs
wildlife
assumed
defeating
rates
portrayed
74
##nia
wooden
buffalo
charity
bible
cited
jonathan
vessels
69
surgery
processes
indians
covering
##tone
whilst
##ld
visitors
depression
tests
narrow
cm
vancouver
81
mouth
nomination
1883
personality
leon
manga
tools
maintenance
##ves
achievement
perfect
instrumental
tigers
guards
bond
experienced
wheel
peru
changing
initiative
stopped
tunnel
tech
86
##vo
significantly
##em
mitchell
summit
activist
alice
movements
prepared
carbon
alberta
archaeological
##cy
##more
evans
constitutional
caribbean
1878
slow
gang
depending
dna
successor
threat
nebraska
nevada
91
stream
popularity
virgin
##sk
islam
archbishop
triple
84
sugar
capable
interested
anime
threatened
tied
eliminated
jerusalem
adaptation
struck
73
##ris
archives
mechanical
##lis
##lle
concerns
##su
inter
cat
integrated
powered
colombia
luis
fa
resident
ago
superior
1876
formally
classified
scope
##po
locomotives
ensure
pradesh
requires
maritime
##ula
trading
playoffs
bomb
shell
suggests
colour
turner
runners
forming
hans
grace
rangers
concrete
jerry
nigeria
##water
continuing
participation
kg
processing
89
nicholas
standings
ride
milan
lgbt
proper
##tta
criticized
accounts
tall
visiting
martial
grow
https
clinical
driven
##out
##ok
filmed
1860
hurricane
1879
representation
psychology
##port
breaking
volumes
jay
bristol
democrats
characteristics
offering
trinity
##ita
nbc
philippine
google
parker
drawing
afghanistan
charlotte
flows
boats
crash
anything
equipped
modified
branches
benefit
1875
animation
##ice
evil
##shi
monastery
##tz
extreme
continental
##isation
##ise
appearing
dated
fruit
rifle
talent
phone
87
arabic
participants
ready
learn
thousand
sweet
##up
1867
revenue
na
agents
stayed
column
1871
##work
raise
advertising
sculpture
entering
##vin
influential
83
counter
percussion
1877
fear
bernard
##ola
79
1868
keyboards
patrol
hunt
minimum
conduct
moment
panel
adding
##ians
cash
principles
occasionally
releases
themes
locality
clan
crimes
##ye
1874
maps
instance
adults
tie
croatian
sporting
speak
dj
spiritual
2010s
##ano
1940s
##tis
phil
plate
phoenix
vessel
sponsored
##ft
democracy
##ua
voting
assault
celebrated
penalty
sao
oak
harrison
1872
architects
weekend
vi
spoken
biology
whereas
ninth
rounds
cooper
uncredited
ghost
illustrated
collins
ll
violin
manhattan
surviving
appointment
cousin
mail
printed
montana
mac
forum
1873
license
siege
horses
replacing
##yan
indoor
##ver
cuba
##ster
styles
somewhat
decline
premiere
versus
proposal
drugs
roots
jobs
grown
scientist
apple
drop
lions
herbert
longest
output
riding
licensed
wolf
##hu
bringing
1000
##board
happened
giants
peaked
eagle
pioneer
everyone
wedding
achieve
acoustic
document
reputation
annually
illegal
huge
duo
##ani
1866
terry
involvement
##ors
retail
vincent
##izing
battles
beijing
friday
submarine
sessions
nhl
clay
##cus
organisations
mi
helping
experiences
option
##llo
cincinnati
bobby
##ho
shopping
completion
declined
ken
keith
##so
foster
technologies
ill
farmers
demolished
larry
journals
preserved
touring
oliver
scholarship
cave
competing
couples
choir
lp
provinces
venue
roster
ph
voiced
persian
neither
hull
nominations
transition
transmission
##rum
competitive
contribution
outer
consider
muhammad
manner
120
dictionary
borders
filed
lawyers
facing
explained
affiliated
dick
rolling
researchers
##tti
increasingly
adelaide
peoples
##ev
strongly
handed
##lli
sc
hundreds
signs
rd1
serie
secure
madison
rival
##uk
##bridge
texts
considerable
turning
overview
raf
jury
amongst
monthly
lloyd
statue
signing
ratio
1869
##ich
seeds
pain
massive
diamond
commons
##sson
hugh
harold
##ities
bulgarian
hudson
butler
boxing
biological
detailed
hindu
sur
indicate
arrest
barcelona
reporter
instrument
##zo
bulgaria
##yn
yale
##net
innings
derby
cooperation
wells
hispanic
meetings
roberts
harbor
##ella
pa
indicated
tribes
surrounded
blocks
pole
munich
apparently
##ou
feed
elevation
photographs
overseas
catherine
existed
bound
destruction
approval
##ett
activists
supporters
tours
ss
armenian
saudi
civilian
studying
mystery
visible
funded
injuries
tag
concerts
alleged
amsterdam
tribute
clinton
##zer
statistical
##oy
competitors
patient
passage
wear
carrier
crowd
punk
relationships
##bach
wants
##tive
dennis
segment
concern
similarly
seed
##fa
graduating
cricketer
1859
norfolk
suit
jacob
ballet
abuse
shares
andre
benefits
guardian
kids
governments
grandfather
controversial
abroad
villa
buy
touchdown
platforms
lay
marvel
shall
1850
mines
knew
denied
vermont
##ei
baptist
tail
croatia
virtual
sounds
thai
volunteer
dual
fellows
rated
liberty
managing
bonus
venezuela
cargo
matters
stuart
struggle
youngest
publishers
1848
elder
trials
delaware
##sm
enterprise
##back
##rin
hearing
normally
cardinal
##ology
effectively
alive
treated
1857
walking
convicted
rev
diameter
accept
incidents
unusual
denver
syria
regime
falling
operator
kenya
settlements
eu
favor
senators
recommended
supports
trump
strip
soft
symbol
craig
ron
concerned
marks
##ud
eddie
component
jon
##lu
false
pink
ranks
mall
hence
fresh
desire
woods
sacred
assist
birthday
athens
encyclopedia
significance
##ona
rocks
lasted
enforcement
##hill
##hl
electricity
jump
delta
##ick
holiday
##off
drummer
widespread
jacques
lap
jefferson
automatic
departure
ms
hebrew
categories
buddhist
protest
qualification
keeping
physician
muslims
exists
anglo
defenders
steps
populations
##ique
##ged
##ane
ralph
arrangement
send
leo
sultan
merit
berkeley
sentenced
add
citizen
sand
dancing
opportunities
adventures
hole
intersection
suffering
rhythm
edwards
clean
makeup
neil
constituencies
allies
ban
##ci
helen
attractions
eagles
percentage
spider
garcia
acted
heroes
tales
weapon
inch
minority
rogers
stanford
leagues
customers
donated
##ensis
ruling
belt
fur
##ded
doesn
##ys
ferry
supplies
concentration
seeking
essential
vegas
attributed
sees
plain
##mm
historically
manor
suspended
filming
begun
##red
petersburg
exception
steven
attracted
ibn
##her
##nan
perry
azerbaijan
elite
erected
diseases
hunting
scores
disestablished
truck
##tan
##ora
warriors
traditionally
choose
limits
treaties
##sed
alternate
copy
sang
implementation
greatly
sung
wang
##van
throne
indicates
rapidly
athlete
moves
##yo
immediate
susan
##ans
rick
gradually
chancellor
##od
rebellion
describe
sing
seek
alpha
manufacturers
christianity
traveled
##tra
dominated
dangerous
mixing
balance
ottawa
opponents
##rie
##ming
brisbane
insects
anyone
periods
##ious
reportedly
bengal
principle
defending
microsoft
spending
leeds
clothing
occasions
noble
hidden
advisory
contested
3d
renaissance
colors
exhibitions
##nik
voters
thereafter
outdoor
seeing
obtain
hospitals
posted
gmina
##ceae
conductor
##sha
1854
formations
stable
nepal
relation
clock
ensemble
##ach
1858
luke
##we
serial
pakistani
expert
##kar
gothic
absence
ft
writes
greg
parent
lifetime
departments
else
machines
spin
partly
consumer
chase
gap
photos
congressional
##ras
spoke
grammar
northwestern
##ides
remainder
crystal
##ics
flower
apartment
assets
bed
viewers
tier
immigration
fighters
generated
resource
liberation
rebuilt
select
partial
ivan
1855
tiger
auckland
lose
legs
sa
territorial
useful
extent
murphy
trio
##ess
apply
practical
pedro
germans
leaf
gauge
encouraged
##lt
harbour
commanded
lion
fit
ultimate
700
affair
raymond
possession
##sing
venture
ski
traditions
calendar
nevertheless
emerged
claiming
volunteers
compositions
tommy
discussion
florence
copper
diplomatic
##bad
##med
##ric
understand
romance
missile
assisted
dogs
writings
playoff
reduction
oscar
sierra
timber
manufacturer
##ru
continuous
mathematical
resort
substantial
taxonomy
##ena
anglican
##mus
advice
newcastle
##ix
conversion
grove
leonard
lights
waste
pitch
files
holland
sharp
violent
sentence
##rn
sean
closer
tournaments
loop
certified
manuel
frequent
##era
legion
identify
sample
cotton
viewed
gilbert
##ere
terminus
tenure
cap
##bs
mention
organised
##fish
welfare
confederate
dame
slave
picked
programmes
drum
rob
recipient
1852
1856
behalf
tanks
##fer
academics
guilty
presidents
concerning
shah
traded
doors
missed
francois
grades
comprehensive
produces
tool
inaugural
radical
embassy
usage
appropriate
collective
##ance
danny
boundaries
##logy
exclusive
till
partially
##00
jurisdiction
dramatic
gregory
regulation
thinking
shadow
forwards
nee
shanghai
mechanism
settlers
shield
touch
lebanon
favorite
spaces
murdered
mason
locally
arnold
republicans
##let
subsidiary
libraries
##har
##ros
reporting
recovery
merger
patterns
sole
aimed
##cha
rocket
acquisition
fun
cancelled
sequel
disaster
characterized
sergeant
##ings
facebook
topics
publicly
aim
brands
harvey
##ese
revised
waiting
emigrants
lowest
mini
assessment
##ites
venice
delivery
ted
vertical
patent
protests
toured
bright
uniform
exposed
bone
restaurants
##ins
layer
decisions
interviews
journalism
radar
closing
scotia
relocated
governors
warsaw
angels
comparison
latino
mars
belief
incumbent
##ible
qualify
heaven
si
rocky
immigrants
attending
connections
drafted
wellington
heights
forty
circumstances
##tin
debt
syrian
solutions
sword
speakers
brunswick
asks
participating
establishing
connecting
detective
cardinals
therapy
1851
recovered
##cher
genetic
han
christians
stones
elsewhere
deployed
interpretation
wallace
cattle
idaho
##°
pitcher
framework
organic
exercise
##lus
##side
watson
marc
byzantine
indeed
fifteen
maurice
pat
hughes
alcohol
pure
beetles
wrong
wearing
remote
sullivan
judicial
worker
bid
novelists
enjoyed
dispute
globe
opponent
shift
manual
mario
clearly
reed
##rus
reveals
novelist
achievements
xi
cruz
##hs
##all
guitars
societies
ongoing
moral
suburb
taxa
milwaukee
phillips
sheriff
angle
campaigns
##pin
ceased
displayed
autumn
aftermath
phd
extinct
1849
riders
intermediate
pc
stakes
joan
abu
molecular
illness
congo
possibility
photographer
chorus
funeral
corruption
implemented
indonesian
tone
eldest
rhode
tea
furthermore
decides
vladimir
oh
milk
##bus
designation
sony
##gar
##ct
preparation
sheffield
worst
nashville
cloud
bases
ties
retrieved
1847
influences
##wan
hell
narrative
ladies
besides
interstate
horn
random
margin
reserves
root
voices
coat
blind
occasion
withdrew
survive
bosnia
manufactured
monuments
printing
warfare
##cia
101
##ston
kerala
##ire
internationally
perspective
presents
correct
valuable
repair
laura
earning
ha
tale
bull
gabriel
shoot
##mar
remove
recreation
boss
##ao
rally
1853
mainstream
theology
princeton
guests
1840
contributing
meat
shipping
fifty
ranges
cycling
autonomous
towers
essex
panama
eugene
variant
filipino
pine
feeling
heavyweight
increases
sharing
apparent
virus
involves
preservation
substitute
unsuccessful
democrat
fitted
worship
monday
##bar
commented
parade
playstation
otto
exit
palm
locomotive
##heim
attendance
farmer
##pi
ranging
fellowship
lodge
grave
discussed
diverse
raising
fauna
flood
focuses
earthquake
reservoir
gospel
saved
fee
pm
somerset
cork
belonging
coffee
banned
hat
auto
promoting
innovation
buses
telephone
acres
##ball
inn
initiated
##ias
vocalist
bath
friendship
proteins
warning
devil
ratings
##ral
intellectual
beating
editors
monster
belonged
##lon
strange
updated
pearl
spencer
au
clarke
saskatchewan
pete
exclusively
##ab
col
improvement
secured
exposure
pirates
ap
uss
crossed
columbus
semifinals
southeastern
##ser
##hr
queens
hart
conventional
latest
gift
isolated
verse
celebration
kick
ernest
completing
dominant
stress
protestant
beer
##sy
artificial
rabbi
dreams
founders
thriller
helps
swimmers
diesel
congregation
variations
raw
veterans
lt
montgomery
conclusion
awareness
hamburg
graphic
##ges
##ain
thin
##over
camps
electronics
repeated
neck
prague
corresponding
winds
responded
thanks
challenges
marry
preliminary
suitable
trouble
das
essays
procedure
destroy
eligible
1846
noise
##ika
excellent
negotiations
hindi
lie
rider
friedrich
advocate
##ating
associations
gates
grandson
fled
believes
debuts
haven
excellence
eggs
slaves
##pers
relegated
pilots
newton
sox
##ala
##jan
symptoms
johann
unless
rush
graphics
den
purple
landed
rarely
miguel
blog
oakland
temperatures
pursue
iraqi
error
##ovic
inducted
inspector
victim
marathon
sufficient
yugoslavia
cameron
##ira
obama
##vic
##ette
hardware
indianapolis
deck
##mon
episcopal
recurring
bin
paulo
killer
defender
dependent
housed
inspiration
prices
tenth
freestyle
bat
specialized
##istic
##feld
aaron
syndrome
variable
##nsis
todd
companion
wealth
banking
flights
##rk
submitted
dismissed
palestine
demonstrated
durham
##op
restricted
farming
pupils
sleep
theories
answer
poll
albanian
lisa
wake
beetle
conflicts
alpine
trans
veteran
ordinary
##du
pianist
commentary
devoted
##ig
grass
##ties
editorial
crosses
stockholm
signals
soap
canton
dialogue
civic
priests
chiefs
sailing
dancer
psychological
pairs
##ware
structural
doctors
fastest
describing
experiment
ruler
punjab
justin
businesspeople
grammy
quantum
manuscript
execution
methodist
kate
arabia
identical
accessible
##dra
faces
nancy
##ery
wealthy
generals
michel
originated
vast
permission
coins
ghana
burning
kenneth
oral
abraham
liquid
##kov
jet
sailed
shakespeare
stem
flash
compiled
##ied
cuban
aires
presidency
bennett
thick
prayer
listings
installation
manage
intention
midfielders
examination
##wick
buenos
impossible
diversity
arriving
sussex
taxes
centres
cutting
suggest
lopez
jamaica
highways
##ari
assists
##ene
##ative
revenge
##ren
romanized
##ju
sitting
missionary
requested
gear
householder
thirteen
artwork
1830
unions
reaches
mumbai
tons
raid
grande
tend
wish
celtic
reviewed
quartet
dawn
shops
concepts
110
oriented
html
shaw
breeding
##nis
geographic
colonies
relevant
recognised
axis
expensive
plastic
integration
dies
respective
tube
computers
matrix
talks
switch
visits
cole
outbreak
succession
distinction
mtv
##gon
dollars
##stein
removal
roosevelt
descendants
experiments
tape
##tha
supposed
variation
sat
hitler
grows
isle
closure
##tu
rookie
plaza
##dar
##tar
argument
travels
exile
bold
palestinian
wilhelm
##ock
perth
usual
craft
options
presentation
##bu
##tre
preferred
seem
ref
baronet
1845
gods
quick
nigerian
sum
customs
declaration
##zing
##mate
widow
bombing
arrangements
mainland
##yl
graduation
attempting
eds
logo
magnetic
aids
##ien
##ada
instruction
##dan
##burn
custom
ronald
cyprus
louise
numbered
seminary
liu
interface
simultaneously
1837
ticket
fisher
weak
##ving
pointed
mercury
uganda
dominican
exhibited
specialist
enemies
nickname
lords
columns
manila
burns
##ap
fundamental
yang
epic
defend
scout
1839
altitude
owen
warm
resignation
interactive
##ters
expand
marcus
vietnamese
franz
##ws
##ska
nationalist
rebels
vii
chester
reconstruction
receives
operators
handball
dress
mosque
vary
accessed
##din
looked
colin
airline
nasa
stroke
arc
smart
ask
##hn
eve
burned
looks
input
disestablishments
approaches
lancashire
julian
##fi
travelled
fortune
departed
undergraduate
compound
##ward
##rian
quarterback
decide
reducing
midfielder
##ses
extensively
philosopher
temples
targets
##iya
objective
1800
skating
atmosphere
aboard
sandy
unity
nursing
pride
coup
load
measured
##mes
favour
connect
slowly
danger
relay
1844
proceedings
fallen
proof
prisoner
ruth
1841
ho
collegiate
##king
fortress
depicted
functional
flew
evolved
controls
depot
empty
layout
claude
administrator
appeals
mirror
governing
workshop
defended
##gy
mansion
telling
ce
citations
airports
affect
##itz
emotional
##rio
catch
fate
talking
allan
efficiency
cultures
bills
disbanded
belongs
##ved
wider
carries
preserve
##zed
nephew
batman
northeastern
certificate
mythology
drink
radiation
exact
ac
##ag
computing
parking
westminster
ba
essentially
kid
santiago
backed
smooth
phrase
logic
collapse
##ator
lesser
hear
saxophone
isaac
inherited
southwestern
server
##lie
##non
lab
variants
##bird
cool
commanding
samples
spend
militia
literacy
davies
townships
divine
drinking
nintendo
enrolled
interaction
##py
giovanni
exhibit
waves
pit
##ban
casualties
mar
decorated
boards
rovers
stevens
1812
identification
rebel
rough
creator
##ew
informed
georgian
prototype
afternoon
improvements
grants
ram
josh
rankings
reverse
hamlet
readers
julia
payment
boulevard
leslie
developments
gameplay
spectrum
difficulties
characteristic
md
feelings
registration
freight
1843
neo
disorder
enters
landmark
##nie
fernando
kiss
palmer
te
##ec
comedian
se
canyon
discontinued
farms
powell
ye
##tory
130
lucas
authored
extend
lithuanian
catholics
explains
professionals
wrestlers
exactly
predecessor
hotels
bio
teach
##lands
manitoba
wu
approached
labels
##bel
permitted
##pp
garrison
##bly
testament
arch
tampa
##bin
chen
morocco
mammals
refugees
comments
frontier
wire
sixteen
ports
ideal
dissolved
consumption
fill
referring
prove
kitchen
##sburg
wyoming
rodriguez
reader
traveling
##uri
##len
shut
1835
seal
conferences
anthology
malta
##ken
sprint
##bility
##art
1832
stops
indies
cyclists
lithuania
brooks
sabha
distinctive
clerk
survival
worn
massacre
footage
emphasis
literally
eat
reconnaissance
##tal
tomb
binding
escaped
1838
beta
sculptor
java
suspension
voyage
peer
##view
1842
900
##wi
bars
placing
ellis
package
beam
contracts
employee
theatrical
sculptures
newport
suburbs
reformed
nights
penn
##book
copenhagen
tested
check
##mp
slavery
duncan
brussels
demands
earn
performers
paint
helicopter
chapters
mouse
theological
aware
survivors
porter
timeline
elevated
oxygen
curriculum
switched
throw
renowned
collaborated
##ert
pulled
##nus
feat
##fe
1836
advisor
##urs
aspect
observation
aerial
cylinder
citizenship
blake
min
cafe
capita
opens
relating
migration
##chen
bryan
detail
ecuador
reforms
diet
##works
polo
notice
tributary
jail
abilities
estates
pitched
anchor
posts
herzegovina
##dal
affiliate
##ned
sized
supplied
##bank
##time
equation
difficulty
##kan
fn
screenplay
##ability
antarctic
metre
sustainable
armstrong
exploration
nobel
sebastian
namely
download
henri
alien
bearing
discrimination
administered
coached
##ven
deemed
tactical
commenced
fossil
regard
protocol
burials
##ale
denis
gross
aggregate
catalogue
essay
plains
firing
commanders
##war
##low
105
mutual
##nts
consistent
holmes
##tein
engagement
hybrid
surprise
devon
signature
wasn
##ular
recalled
##ncy
delayed
grid
armenia
aims
bailey
fr
cornwall
emerging
shock
##ification
aside
frankfurt
linda
##og
andrews
orbit
##ened
surrey
##ington
temporarily
solomon
twentieth
forever
healthcare
malaysian
felix
nearest
##yer
experts
thesis
imprisoned
burial
##lock
confused
##ois
hms
##sley
faster
lighting
span
connects
emily
simpson
superintendent
strings
snake
##mal
franco
##down
surrender
meter
emma
jennifer
interchange
##ical
feminist
aboriginal
wrestler
midnight
dynamic
canterbury
##tors
destination
passion
terrorist
glen
seemed
navigation
memphis
resumed
failing
legendary
oslo
##ction
motorcycle
amazon
provisions
kilometers
intervention
curtis
abolished
observatory
optical
arrives
localities
batting
tip
albania
retreat
comprises
nineteenth
attacking
efficient
putting
customer
calgary
wise
chuck
cult
fourteen
##yi
bradley
reflect
breaks
capitol
auxiliary
residing
eurovision
chronicle
euro
generations
bradford
galaxy
canon
harper
125
##tv
broadcasts
sheet
indicating
documented
bros
##point
tribal
joy
citing
amy
doctorate
fk
client
tang
lover
lecturer
legends
platinum
shorter
consist
interesting
songwriters
endangered
chilean
behaviour
theoretical
zhang
istanbul
cardiff
##oa
spots
explain
conquest
victories
##ui
criteria
vinyl
napoleon
bomber
lectures
cdp
##ified
guild
witness
moderate
governance
monitoring
kills
tyler
##zy
mad
orlando
carol
kingston
amounts
nationwide
neighboring
cuisine
##our
export
henderson
deputies
notre
receiver
doctrine
performer
pack
gen
statements
colored
designers
surnames
pushed
slovenia
ferdinand
shots
pale
edmonton
executives
pen
oval
procedures
herald
chambers
afl
rapper
##ida
pdf
##pus
separation
presenter
codes
consultant
richardson
facade
nathan
gibson
gathered
##ile
1834
dos
bowling
rachel
afc
asking
ethics
##dia
sustained
naming
heir
nurse
cox
biblical
##eo
servant
caroline
goalkeeper
##gal
wheels
terrorism
cuts
celebrity
dimensional
evaluation
marshal
teeth
hood
parishes
##aki
subspecies
pursuit
boxer
focusing
edgar
thereby
##ase
lutheran
clients
philosophical
lucy
maintaining
scandal
stolen
##tum
hopkins
wet
tissue
guitarists
circular
handling
portions
sheep
girlfriend
##light
presbyterian
theorem
##ray
interim
##ments
mit
editing
segments
iso
airfield
murders
bench
prevention
committees
transformation
arsenal
connor
geology
recruited
arrive
belgrade
##ridge
extending
edmund
drove
elimination
fluid
1815
discuss
convinced
nadu
copa
##ex
##ack
plates
situations
jeremy
suddenly
absolute
fat
spell
utc
vector
##vy
rivals
kumar
suite
andrea
##ening
compounds
displays
punishment
##iro
crops
milton
symbols
praise
twitter
warrior
belong
viii
dealing
dialect
brook
##zhou
estonia
##maker
bones
ibm
lock
prepare
knows
##ax
keys
diplomat
##ome
robertson
##hus
stored
trustees
albany
##ugh
civilians
##oo
dying
##ht
accurate
finale
tasks
touchdowns
enzyme
teen
flute
rochester
##my
bacteria
lift
predominantly
##mont
sure
compact
##lar
##rat
ruins
manuscripts
sudan
divorce
chan
##sta
yu
mechanics
carlo
neighbouring
chelsea
confidence
developer
##ress
geographical
footnotes
reactions
regardless
wonder
invented
lying
bow
indie
slovakia
##ama
handle
tobacco
tables
perceived
iceland
challenged
consequently
associates
##ets
aa
fewer
ace
##das
egg
adr
upcoming
sending
##cht
cartoon
contestants
jesse
dubbed
baroque
guidance
patron
burton
circulation
##ably
zoo
##shan
belfast
1831
geneva
pace
beaten
drawings
gathering
memories
physicians
referendum
jin
fed
muscle
glenn
neat
diving
##inger
spy
rulers
sight
regiments
retiring
##aw
preston
##ches
arctic
foods
##nda
os
commitment
promised
intense
ahmed
restrictions
hugo
paralympics
dome
butterfly
utility
1833
##stone
inscription
sanctuary
geological
torpedo
automobile
atomic
cornell
salvador
extends
##master
dollar
explosion
armies
glory
privately
##cc
theodore
102
allmusic
fraser
ufc
cannon
##horn
##san
americas
furniture
brings
announcement
portraits
delegates
mayors
nacional
doug
forcing
concerto
discovers
windsor
dale
lessons
luxembourg
lyon
telegraph
beliefs
rings
discover
favourite
gerald
push
pretty
actively
eating
duchy
ecology
##nic
surgeon
creates
plymouth
##sey
##oe
##una
genes
brien
firms
remembered
contribute
playwright
##cies
considering
observations
headquartered
seriously
lecture
colleagues
kenny
manages
engage
##yang
algorithm
jamie
hearts
saving
##tas
##bed
zurich
vcard
addressed
gaining
investors
allegedly
monk
quest
landmarks
im
chi
argues
##com
gaelic
independently
seoul
honored
springfield
rod
endings
moments
gonzalez
prestigious
viola
accommodate
##cu
##dor
adrian
requiring
1820
tenor
mcdonald
##bert
exterior
sit
screenwriter
twins
nato
holdings
emmy
stability
monitor
encounter
suburban
reflected
varieties
karen
joel
cliff
activated
##oi
shelter
##ids
loved
allegations
kyle
understood
brighton
mlb
reid
rap
currency
messages
##pan
remember
1500
promise
algeria
discipline
marion
beneath
abdul
malcolm
classics
releasing
agree
##box
celebrate
ordained
##los
ussr
reynolds
educator
monroe
jets
104
abstract
##und
cats
palomar
##ration
aka
espn
boom
counts
lynn
##aria
ranch
centered
suspected
improving
##oc
nicolas
boeing
prevented
##а
##sch
compensation
boxers
mixture
enabled
##can
colours
nice
rosa
rape
est
fairly
strikes
quarters
motors
180
dancers
martha
budapest
tackles
destroyer
marsh
nominee
archaeology
stationed
conducting
sailors
##lly
lancaster
deer
copyright
realized
counsel
paradise
treasury
newfoundland
banner
dinner
ab
lawsuit
streak
investigate
threw
360
dragons
cohen
##kes
threats
interactions
##bre
goddess
treat
ludwig
betty
collector
wait
cream
dorothy
followers
infection
merely
ellen
provision
##ez
enlisted
raiders
estonian
brigadier
inland
1775
halifax
103
350
##min
diana
##10
accounting
knee
atlas
neutral
##tto
##lay
kit
##oid
laser
edwin
triangle
duration
bavaria
julie
travelling
comprising
fbi
submission
holocaust
owns
ammunition
permanently
monte
elliott
ash
encourage
wagner
##eau
casting
facts
finalist
1825
##ulated
requirement
watching
##ose
barnes
disorders
mineral
cent
audiences
ethiopia
jam
configuration
marines
grain
##las
renewed
wednesday
log
1828
entrepreneur
nicknamed
investigations
1814
entity
repeatedly
140
##ological
##sar
tasmania
altered
marco
##eh
##ero
speedway
maintains
pond
louisville
worlds
hiv
trumpet
topic
bassist
severely
magnitude
shoulder
shrine
boarding
conspiracy
##dis
jake
runway
targeted
##iel
limestone
authorized
findings
##bra
underwent
burke
uprising
°c
lightning
robot
maker
##con
equality
keyboard
swing
rifles
winnipeg
morrison
holder
pronounced
julius
entries
missionaries
hydrogen
imprisonment
rowing
conversation
pastor
toll
##mia
attraction
mentions
biographical
monarch
fusion
relegation
retain
##ual
familiar
##inae
sensitive
deals
marble
transformed
disappeared
rhine
websites
delay
kurt
della
fraud
carroll
geometry
bolivia
pub
automatically
mesa
martinez
inches
##tia
ernst
annie
revolt
refuge
soprano
deeply
##hin
eventual
##abad
sin
salem
con
workshops
wore
observer
glacier
##dine
pregnant
nationally
taste
operas
hub
zones
math
attitude
naples
santos
expanding
cruise
casino
macedonia
crashed
convoy
burn
160
thermal
joins
macdonald
innovative
demanded
feels
alexandria
distant
skill
thunder
heading
confederation
##tions
##brook
ahmad
collect
relatives
deliver
uruguay
streams
##zu
##hood
thursday
conjunction
jo
consequences
restore
bce
equity
cluster
hurling
bach
personally
circus
smoke
deposits
wireless
saxon
brass
anton
ulster
explorer
telugu
106
developers
willie
protagonist
stronger
kazakhstan
##ill
yugoslav
inhabited
georges
trails
arcade
1829
wickets
assassination
accidents
richards
harmony
probability
es
##ering
moreover
foundations
1824
contents
seized
forth
occasional
item
closest
divorced
dimensions
ancestry
nose
postal
rotation
particles
heath
potentially
curve
##eus
hardy
specimens
adoption
1826
750
enterprises
slovak
onwards
paying
welcome
cello
highland
withdrawn
##yne
valid
catalog
upgraded
zimbabwe
##val
##car
yankees
diploma
graves
knockout
subfamily
instructor
recognize
varied
##sville
personalities
idol
array
frances
permit
environments
quoted
fees
leipzig
ai
mathematician
strategies
reveal
vulnerable
councils
portal
syracuse
heinrich
##mel
##logical
rican
fe
hometown
##fied
##nne
larvae
##hal
millennium
##cker
##del
promotional
rica
##stic
humanity
shifted
caps
##af
demo
inquiry
vale
##tle
mysterious
construct
1821
##oon
specified
odd
concentrated
derek
cyclone
panels
terror
trek
bombers
floors
storyline
scouts
trinidad
translator
rainfall
perez
picks
brad
integral
nationals
hosting
##ulation
propaganda
tel
##ph
terrain
encountered
phenomenon
raja
##ati
##aa
lineup
tight
##cal
hayes
##zen
maharashtra
enable
intent
researcher
quarterfinals
breed
petition
sequences
decree
trick
nottingham
collecting
melody
crawford
##ule
deceased
economist
sofia
noting
plateau
hopes
eps
norton
squadrons
wilderness
##oma
cognitive
bicycle
##hurst
minneapolis
portsmouth
staged
pipe
##rate
##hai
nascar
walt
ritual
decrease
loves
##zar
varies
synonym
indo
unified
nobility
##ify
##nu
ji
disabled
enhanced
blade
translations
lebanese
1801
hammer
primera
crazy
thames
##ulus
johnston
prey
newman
synthesis
battalions
estimates
silva
##els
intensity
colombian
etymology
feeding
clergy
crowned
consensus
topped
suffolk
buddhism
treasurer
##ico
##bc
1813
pounds
##ı
##if
extraordinary
costume
claire
carved
##ord
define
dust
treasure
gaming
impressive
disk
cooking
profession
witch
vital
johns
graduates
tanzania
##yu
lighthouse
carpenter
diary
lucky
##wski
app
plantation
expatriates
##ines
##borough
stretch
cherry
janeiro
manufacture
mask
lifestyle
ion
fires
apollo
virtually
instructions
monks
leicester
guided
hitting
tribune
easier
flooding
autobiography
naked
receptor
reunion
saxony
lit
voltage
1818
generate
quiet
measurement
duck
proposals
sara
clara
specifications
consent
imposed
wikipedia
trainer
happen
1810
##wald
quarterly
rao
rene
tune
potter
neighborhoods
consequence
trips
bankruptcy
##ising
empress
bengali
##the
troy
moses
bruno
prussia
providence
reads
##ori
fail
##ees
myanmar
breast
ana
suggesting
dozen
measuring
prussian
uncertain
clothes
corridor
slam
ko
trend
pursued
charleston
impressed
surfaces
##osa
directions
karnataka
##use
churchill
dynamics
cabin
certification
fever
madagascar
##rg
lok
hd
provisional
referee
forbes
striking
guatemala
formats
willing
armor
##illa
capabilities
linux
sunk
cowboys
107
constantly
stan
##hall
pollution
hoped
rhodes
explore
munster
logan
##ito
varying
chicken
rivalry
consolidated
aunt
healthy
##die
##mba
##sia
nest
su
patricia
confusion
ballot
rubber
mo
pocket
drake
assembled
gravity
inclusion
vegetation
shallow
layers
sacramento
##shire
recreational
siblings
##sc
greene
##ars
eighteen
supporter
transported
horizontal
vampire
randy
malayalam
cia
learns
yuan
accomplished
lou
velocity
##bb
galleries
graph
##cing
enjoy
properly
abortion
bonds
witnesses
skull
tin
roberto
institutes
consciousness
papua
rd2
settle
occurring
##ologist
loans
hook
strict
carnegie
kosovo
balls
regulatory
##eri
doubt
tactics
assignment
##az
##gue
directing
tourists
##sie
grandmother
trucks
mann
scorer
blair
jorge
alto
judgment
##ado
casey
clinic
##away
tu
equally
nsw
##eur
teenage
badminton
barrier
griffin
cairo
baldwin
catalina
escort
lens
1822
##ute
maxwell
explanation
renovation
francesco
jessica
citation
yes
hp
armoured
submarines
prairie
##wo
mate
orientation
delegation
loose
substance
##usa
fi
stern
pull
councillor
trap
governed
voluntary
coordinator
thomson
krishna
sick
baltic
electron
toy
loyal
rainbow
sanchez
airing
25th
bombardment
##oni
sp
unanimous
acknowledged
philippe
chef
rebounds
thrown
1827
dimension
latvia
joshua
##row
diagnosis
1816
publish
withdrawal
##dom
##enberg
agreements
contestant
inventor
troop
interpreted
draws
involve
knowing
governmental
acquire
cameras
swift
darkness
solely
priority
whatever
##ort
premiership
geoffrey
invitation
tan
deutsche
holes
fiji
lesbian
cooperative
##uch
admission
superman
##via
jungle
##berry
##ios
lease
preparing
servants
barrel
exhibits
##ats
venezuelan
walsh
##wn
evangelical
##kai
jeffrey
baden
mature
practiced
opposing
##cho
naturally
coin
dylan
sec
##ory
angry
aberdeen
apartments
burma
technological
unfortunately
millions
fights
kilometres
##ivity
scales
trailer
strait
berry
chip
stefan
##aya
##een
councillors
climbing
mechanisms
telecommunications
acclaimed
dressed
itv
subway
lasting
swan
wwe
merchants
transactions
highlights
vernon
unofficial
cf
secular
condemned
##nen
drives
surveillance
##gel
dubai
1823
flown
stake
philosophers
illustrations
1758
patriots
enrollment
##ssa
lang
ambassadors
spotted
absorbed
##dorf
spacecraft
bundesliga
speaks
interviewed
initiatives
fossils
boris
lo
monica
trunk
bike
romans
georg
ch
silk
##ith
fairy
photograph
planets
sail
herman
kinds
para
1819
aggressive
oriental
skiing
sherman
##ude
refuses
dec
##ions
badly
transfers
timothy
##iana
roller
brandon
marking
performs
jerome
fiscal
proceeded
mandatory
##are
michelle
##fully
garage
upset
winston
outcome
hypothesis
detection
ka
flagship
##world
filmmaker
revived
fcc
sponsor
tuesday
broadcaster
montenegro
expelled
collapsed
freshman
##nte
1806
mt
bee
physicist
supervision
##nse
basement
volcanic
kerry
acclaim
bulk
##bia
gerard
roland
consumers
southampton
silence
continent
1817
lunar
particle
demonstration
##iva
108
##tation
belarus
bend
tiny
chest
investments
flowering
marina
##ben
physically
worcester
desired
mohammad
faction
jackie
##tter
separately
circles
qatar
fitness
demon
genres
depicting
payments
bombs
rounded
criticised
bread
decreased
certainly
font
freeman
finite
##fire
apostolic
watched
chapman
estimate
depends
sits
maiden
maple
accordance
arguments
handled
airborne
halls
antarctica
ceremonies
vicinity
cage
cleared
savage
teammate
##mic
commissioners
sixty
mph
##ole
arrow
edit
santo
stick
##day
1803
consideration
truly
membrane
ucla
webb
ki
rafael
##gle
chang
pet
##igan
habitats
corn
politically
sociology
eva
fountain
atp
##lam
##var
1809
legally
excess
##ein
viscount
##oto
batteries
prompted
watts
##hara
tackle
petroleum
erik
##и
##nin
discussions
rector
humanities
111
innocent
correspondence
barracks
machinery
algebra
believing
consulting
custody
midlands
lung
olive
pavilion
jointly
spelling
repairs
planes
granite
dock
jacksonville
maya
sally
regent
minimal
convert
sidney
##ela
##onia
neighbourhood
##lum
rushing
altar
implement
fault
offense
inaugurated
##dd
luxury
##nell
neill
##ade
gymnastics
conceived
##ison
##12
janet
##tsu
noel
educators
ix
vacant
bedford
ashley
ferguson
paramount
##ip
makers
css
proclaimed
##dt
deployment
liner
panthers
##cion
chad
##makers
governorate
edges
unclear
##nica
easter
meyer
xbox
beast
rendered
sketch
trace
necessarily
prehistoric
shed
woodland
errors
humanitarian
asteroid
hon
tonight
armored
introduce
##iers
responsibilities
doctoral
remarkable
trilogy
auction
valve
##ough
ira
theatres
freshwater
advocacy
rpm
blocked
##lee
##une
variables
frog
scattered
courthouse
bore
gastropod
succeed
reserved
luther
undertaken
hampton
renovated
##bie
poorly
##logist
miners
blow
bo
rays
recover
prizes
accidentally
premises
sue
fragments
honey
objectives
1790
1793
chains
hermann
nixon
tension
lynch
##bal
##ath
cottage
walks
ecclesiastical
pablo
dirty
advised
pin
struggled
sovereign
ultra
missiles
##wing
jun
verlag
creatures
##graphy
##mas
differential
morton
chennai
##ple
percy
beatles
##hen
spiders
czechoslovakia
sacrifice
agrees
##fs
prohibited
spirits
gardner
rises
castro
bang
salary
##boy
availability
introducing
##ovich
cedar
slopes
dental
johannes
rca
considerably
charitable
chaos
christine
constantinople
webster
chateau
sudden
wheat
alberto
update
rehabilitation
##gu
console
##list
chronicles
italia
predicted
provider
##ima
bulls
fernandez
licence
lisbon
mhz
midland
angela
argue
amazing
dixon
allocated
1808
android
ni
##ava
sanskrit
wei
considers
hawks
jumping
ore
jenkins
acre
floating
##pt
reds
##dos
##oli
directory
rebecca
cubs
maternal
perception
asylum
leather
paralympic
jung
1811
tucker
fl
afghan
##ways
1794
removing
underlying
madonna
averaged
##ox
115
sometime
subdivision
crucial
sleeping
osaka
achieving
muller
preceding
snail
carriers
##old
cumberland
##birds
kirk
settings
commercially
modeling
wa
##ult
equations
capability
112
everyday
beck
augustus
artifacts
bulldogs
109
pottery
loaded
cecil
astronomy
aviv
belle
cambodia
hawk
disability
riley
mickey
cologne
elephant
genesis
prof
sicily
whitney
drag
##rick
portfolio
tornado
tickets
correspondent
uttar
helsinki
invention
bulletin
molecules
coordinates
depicts
judaism
boyfriend
wards
careers
homeland
accuracy
ham
ecole
clause
stepped
coleman
critically
##craft
successive
##tel
##fu
verses
responses
ming
##ub
alexandra
planted
crop
polar
feminine
strictly
monsters
unesco
##illo
##born
flags
folklore
homepage
helena
cc
laps
flies
bout
darwin
organizing
##aka
1807
isn
1798
calculated
lance
##bing
cruiser
def
hung
fletcher
ain
knocked
analog
proximity
placement
1805
intelligent
induced
##pm
swimmer
pioneers
magical
##kel
pier
raids
homer
acceptance
cry
##ree
thoughts
terminology
##ote
wartime
quit
3000
toledo
listening
accredited
disputed
mandate
clare
absent
protecting
strain
qualifier
stamps
##sts
controlling
davidson
moss
myth
obvious
highlands
roma
##bee
dodgers
crater
peaks
pierce
investigated
nrhp
unveiled
##yama
##ulate
lightweight
trevor
joyce
rescued
fork
tongue
twelfth
ceiling
entities
narrator
rent
hide
toyota
##ean
1804
llc
tibetan
memoir
crews
bergen
fiba
kane
castles
expressway
hanging
##its
carey
cheese
##hy
cheshire
##ence
facilitate
stuttgart
consul
detachment
haiti
gloria
sophie
maori
handbook
ne
lankan
disputes
challenger
delegate
breakfast
wishes
coral
elect
libya
botanical
tracking
elderly
infant
gastropods
emeritus
feast
linguistic
blacks
caves
guidelines
##rch
zagreb
attract
trafficking
climb
princes
##ates
lu
bats
monarchy
sharon
##kh
favorable
withdraw
immigrant
1802
mvp
transform
1796
buddy
demonstrate
##20
##sel
##lman
giuseppe
imported
savings
##tie
testimony
hate
pleasant
civilization
specimen
xavier
tunisia
bombay
##nal
realm
sponsorship
tide
ecological
screening
themed
throwing
consistently
atletico
textile
fungi
##nk
comparative
chocolate
communists
questioned
angola
##ode
providers
nordic
shells
decoration
mud
irving
##mine
din
module
##ali
anthem
##aro
##fl
shoes
factories
##sion
destroying
sectors
bolton
exeter
archdiocese
ga
cyclist
##rine
saga
pleasure
summers
wong
synopsis
##woman
insee
mercy
presenting
sutton
lots
##hon
shooters
dense
rex
##bon
norwich
emissions
modes
seeks
lateral
1795
prospect
lin
longtime
rams
##uta
polbot
reprinted
gymnasium
notion
shirt
##inus
medalist
pension
proportion
##als
harm
reptiles
finger
rowers
georgetown
lima
pregnancy
kiev
sphere
anonymous
fatal
generic
##rc
##uma
hartford
preventing
aerospace
va
button
riverside
##hia
dell
reagan
warrant
adolf
imaging
nonetheless
mentor
##wall
torture
recommendations
skiers
##mu
boyd
dish
convent
rudolf
##lf
collaborative
##ami
penguin
shirley
linnaeus
1792
emigrated
nov
pageant
scots
distinguish
fu
proceeds
searching
riots
yield
respond
sandstone
braves
accompanying
openly
crane
dances
adviser
booth
slot
hammond
##ography
reliable
tracy
comparable
##ische
clement
inspection
##base
middlesex
rat
continuously
emi
bounded
riot
##zan
determination
mastering
##gia
offs
conservatory
1789
carr
##ato
storey
hawaiian
##eck
bag
blast
softball
dining
solve
fruits
embarked
broncos
venus
pound
##oda
anthropology
agnes
dams
organisms
differ
##ichi
##50
butterflies
amanda
tough
cameroon
accommodation
##mark
rapids
taiwanese
kolkata
religions
dialects
funk
ar
backup
gibraltar
controller
bells
##tine
sings
##ann
europa
complexity
lone
decorations
steep
advances
ballad
carson
prosecution
systematic
happens
450
ear
conrad
dissolution
examined
##cock
browns
valencia
commentator
hurt
dong
composite
buck
##lio
eleventh
advancing
statute
ru
kay
omaha
##dic
viewing
counted
complaints
poles
kannada
knife
overcome
dairy
circa
exercises
mg
auburn
institutional
newark
fitzgerald
##try
tallest
spelled
arose
##eu
obtaining
ton
reflects
diagnosed
brewery
##iz
promising
par
hannah
complicated
##rated
nash
clyde
pga
emirates
corporations
reverend
##oh
joey
liver
##ila
##iidae
##jon
freeway
mohammed
bride
barn
schemes
##stan
beds
courage
1799
minerals
monkey
challenging
opinions
caesar
alma
conviction
infinite
##izes
rockets
tragedy
branded
##cation
##tian
carmen
albion
mercedes
kingdoms
slope
surrendered
explored
stats
trapped
qing
andhra
pump
contrary
listen
elaborate
masculine
##umi
arguing
135
seating
duchess
humor
ups
lanes
marketed
securities
beats
##ques
sk
shane
chassis
holders
shepherd
encounters
128
seventeen
integrity
tomorrow
##eon
donations
bigger
##vas
beaches
oct
likewise
lengths
develops
##hausen
comment
countess
canberra
classroom
negro
##nder
##rf
schmidt
wade
illustrator
congressman
uci
##bro
contracted
memoirs
decorative
respected
andreas
traces
smoking
patriarch
sends
icelandic
livestock
antoine
photographic
wimbledon
destroyers
interference
harvest
reservation
bullet
forestry
addresses
prose
spite
wives
forgotten
ally
clarence
aided
slovenian
speeds
reinforced
macedonian
em
duet
rey
papal
endorsed
transmitter
generating
##awa
wound
striker
vatican
salmon
organize
winchester
evolutionary
bangkok
katherine
loyalty
sailor
newer
lily
verb
mk
drainage
stamp
terrestrial
gandhi
secrets
chronic
locals
documentation
macmillan
##bes
curling
alps
mere
extant
dishes
flowing
worse
##aj
adopt
automotive
##orn
destinations
kashmir
peterson
binary
##kal
##dge
rectangular
dealt
photographers
catalan
buddha
sharks
peruvian
##eg
stint
terrace
posthumously
ranger
shuttle
nina
##ants
bryant
floyd
outlets
yi
jenny
mongolia
ancestors
##rich
fake
boxes
violation
combining
lacrosse
tram
sterling
leigh
hastings
crest
valued
##late
statues
hyde
informal
hay
matthews
##pel
##rry
##eta
que
monarchs
visitor
beside
strongest
tender
sizes
totally
##dian
watershed
measurements
dawson
paraguay
leone
##nas
##rna
parody
##ture
conventions
likes
kuwait
unsuccessfully
juvenile
heating
adds
var
pistol
latvian
busy
##vis
assume
sanders
inscriptions
##nation
astronomical
secretly
advocated
monetary
##hart
##⁄2
survivor
patterson
mapping
##boro
funny
##wal
contributor
cure
specification
philharmonic
trent
divide
redesignated
##foot
diaz
acute
scholarly
laboratories
smallest
clarinet
honda
penalties
##pes
cameo
coloured
##lyn
conservatives
offshore
obituary
titans
tears
hostile
info
pupil
varsity
gill
proven
##end
mc
resolved
raj
simulation
preceded
wisdom
creature
intact
##hir
wolves
frames
carnival
lorenzo
gomez
asset
tehran
atmospheric
1880s
sad
ribbon
privacy
stoke
##room
detention
surgical
cultivation
parameters
reviewer
celebrations
anatomy
keeper
attractive
alphabet
pearson
rs
##borg
tribunal
consortium
risks
arlington
carriage
rouge
warehouse
donna
##ace
charted
enclosed
hiding
shark
basque
couldn
fischer
##fy
leopold
coupled
ruby
yemen
airways
levy
publishes
quinn
arabian
##met
keeps
ip
erie
##cted
bi
bypass
projected
staying
##gram
skilled
##ller
astronomer
starter
fisheries
220
dealer
guru
ivory
unlikely
frost
titular
cadet
dot
filter
sheikh
marker
commodore
static
prominence
##ele
falcon
abbreviated
##hua
kai
nerve
phantom
owing
possessed
##ked
##tc
enlarged
linking
##alis
contacts
requests
eliminate
cbc
retire
viking
combine
peaceful
113
##lic
itunes
##wen
remake
lindsay
pour
underwater
breakthrough
malay
hi
shire
gateway
1776
reopened
coordination
1797
vault
reunited
supplement
financing
willis
devils
elisabeth
ricky
lambert
170
##ency
wingspan
##ders
brilliant
##dell
paths
buying
salon
comprised
valleys
criminals
dropping
vikings
##uous
corners
eden
wesley
anywhere
##itis
installations
prints
dudley
patch
puts
abbot
enacted
basel
manning
torres
demolition
##uro
prohibition
gains
gloucester
collision
##tics
peters
ra
tubes
tailed
##ond
nc
lined
##cio
auditorium
fabric
##11
invested
dee
benedict
luck
porto
shi
realizes
seasonal
sunshine
##gos
healing
invaded
walked
hyderabad
ah
tibet
visa
neal
profits
ideology
##ef
rna
threatening
plaque
yearly
##sus
badge
hal
optional
streaming
##gin
lovers
clayton
builder
seas
pipeline
theaters
surveys
bates
##elli
##kie
forbidden
toys
slavic
powder
benson
subtropical
johan
##own
gujarat
50th
echo
galway
##sco
derives
batted
wheeler
pbs
##face
whenever
honduras
dundee
nord
conquered
shannon
trademark
ag
scenic
hollow
countryside
highlighted
occupy
protesters
aria
travis
defines
leased
portable
unemployment
advancement
terminated
##ern
synagogue
mick
pitchers
wage
advocates
hectares
##ail
##lene
commands
##ouse
##nto
chartered
corpus
coventry
companions
incomplete
interrupted
##nz
hc
please
descendant
metals
##hat
##rm
nervous
cnn
wanderers
##ily
applying
blessed
inception
wicket
steady
williamson
##sin
resides
rita
1⁄2
1791
overtime
##zel
mothers
yo
explosive
elena
flames
miniseries
fails
lineage
guides
frozen
telescope
acids
vic
##tch
primitive
antwerp
holidays
assumption
valentine
taipei
tri
trends
witnessed
##ces
enhance
chaired
holly
irrigation
vfl
constituted
hank
insisted
sonic
##vich
consecrated
impression
universiade
fantastic
calcutta
117
tko
pt
phases
downs
sovereignty
tunnels
bye
practitioners
og
##rius
##mis
enabling
aesthetic
intensive
compatible
presumably
114
horizon
alignment
beings
ligue
##flow
eleanor
finest
wolfgang
revision
motorway
fuller
##ching
##win
modifications
partnered
##ret
mccarthy
warwick
yacht
bitter
er
keen
suspect
##ast
tributaries
disco
madras
toxic
operative
mikhail
##wara
inning
exceptions
liked
##cast
carlton
sculptors
##gg
clube
wagon
detected
certifications
seemingly
lighter
##nel
bucharest
meyrick
##ash
sitcom
##ovo
embedded
mild
ya
slight
##fc
feb
marriages
incorporating
iris
expectations
explicitly
descended
nationalism
discharge
gifts
complications
marcel
phillip
rabbit
anger
modest
theft
reflecting
##nagar
effectiveness
cove
sinclair
lunch
leisure
fritz
pirate
coronation
excessive
quantity
slide
rolls
klein
nielsen
1780
micro
renewable
routine
##gas
bermuda
##of
urged
weber
pianists
typhoon
plasma
##olo
sided
helicopters
poker
lacked
logistics
petty
shiva
algerian
bordered
randolph
parkway
affiliation
dresden
candy
##owski
gustav
reef
sen
shaft
hierarchy
sunset
hoping
noticed
hassan
flee
peers
taxi
ng
celebrities
##graph
##rating
ronnie
sonata
professionally
##oor
##sse
jesuit
##nor
competitor
instances
inventory
triumph
mw
regina
pig
constituent
##gus
struggles
autonomy
analyst
happiness
organizational
1890s
sketches
beverly
barton
hardcore
cr
refugee
whale
crow
depictions
##nta
jubilee
reasonable
exceptional
kindergarten
mackenzie
alter
suffer
warned
upgrade
regulated
##graphic
ramon
ibrahim
##itt
nobody
everybody
reward
landscapes
##phone
##ield
constellation
linguistics
eclipse
exposition
brett
descriptions
gather
intel
diane
reformation
constable
val
screenwriters
fathers
barrett
algorithms
screened
hansen
icon
expense
exploring
steering
supernatural
cloth
shooter
##lets
genome
saves
flame
organs
##dle
narrowly
mistake
monasteries
identifying
##ffer
lifted
damages
uniforms
activism
capturing
dover
##rad
expenses
mob
werner
flemish
teachings
beth
bologna
explaining
struggling
termed
torn
##haus
marching
ethiopian
adaptations
mathematicians
dana
commit
noah
skaters
prosecutor
##enburg
daytime
teaches
hernandez
##iv
cellular
revealing
##eld
##eer
derbyshire
default
##ense
limitations
clips
holt
lacking
##xi
angelo
aquatic
import
employer
hector
ease
josef
##kers
rotten
##bling
##had
synthetic
constantine
excluded
controversies
##tones
enormous
evident
infected
normandy
locked
possess
##cat
brady
christie
vocational
##och
##16
transmitted
augusta
##mb
freed
rides
stalin
curator
dolphins
##zzi
playwrights
nicole
##ep
corp
falcons
precise
archipelago
vera
clifford
distances
mobility
vista
waterloo
investigating
commissions
##nick
mascot
expertise
preparatory
po
##link
applies
##nn
##eda
avoided
##lers
dub
bronx
##tos
cooling
##rst
folded
##chus
domains
loading
catholicism
30th
##eva
##lal
columnist
bottle
fiber
sank
116
supposedly
gambling
advantages
##lk
exam
usc
barker
wonderful
##nam
turks
##ered
camden
berkshire
irregular
spa
colts
chemist
seymour
##ops
ventures
cao
##table
immune
ta
##rol
licensing
##zzo
podcast
publicity
disciplines
beaver
employers
midway
5000
wished
##media
talented
battlefield
deaf
charities
sage
tai
motto
bits
virtue
judith
omar
##power
comeback
sentences
ricardo
protective
##dley
ignored
##pot
radius
curved
tate
cups
reproduction
defeats
remnants
parsons
gazette
24th
thinks
agenda
similarities
undertook
gloucestershire
##nga
vacuum
gov
emotions
partnerships
archer
harsh
substantially
##ship
carlisle
gt
eternal
##oka
momentum
roses
##ulating
flanders
123
##ente
##pu
attributes
mozart
livingston
viral
##hard
121
freely
communicate
240
feedback
preference
bet
monaco
adequate
vowel
canvas
mood
##gic
engaging
paperback
mare
shadows
judy
nassau
vicar
bangalore
precision
stopping
##star
jules
stems
conception
divisional
doyle
souls
pratt
determining
shortened
howe
nurses
legitimate
##quin
unreleased
thirds
samoa
genocide
##band
##kovic
1783
dorset
encoded
##cks
##fold
approaching
firearms
repeat
romeo
homeless
spur
tends
##ood
chemicals
billed
perkins
launching
kicked
miracle
comfort
designing
salisbury
mohamed
baghdad
interact
demanding
alfonso
cal
convince
specialty
##mc
greenwich
sexuality
nm
edith
curves
disabilities
22nd
philanthropist
masses
professors
tobago
cunningham
tonnes
##roy
compliance
reporters
specially
pot
dorsal
affecting
colleague
mega
pioneering
pseudonym
originating
##type
tract
additions
118
##sworth
qualities
fin
racism
premium
hunters
blackburn
precipitation
prolific
##haw
answers
comedians
marx
pike
dissertation
winters
##zation
symbolic
sponsors
##gne
dozens
##vik
rope
##gun
broader
barber
reflection
##lation
cherokee
eighteenth
belarusian
utilized
broadcasters
loving
mel
spare
proud
dedication
orchestral
aaa
appealed
spike
wounds
myers
mice
lc
shin
119
punch
namibia
##gger
##fest
revenues
hague
destiny
mayer
##15
##bat
##nae
penny
mighty
##ther
aurora
isabella
somalia
higgins
somewhere
accordingly
moroccan
doc
loses
##ents
isles
automated
brave
christina
deadly
xii
choosing
gamma
phillies
pharmaceutical
ethical
knox
steal
basket
tomas
proceed
teenager
jacobs
lamb
lotus
##nde
ieee
tomatoes
##hof
villain
campeonato
##keeper
switching
##tail
1788
lincolnshire
myself
##rell
##uc
choices
electorate
spreading
122
pac
constitute
##kis
privy
##uck
defining
commercials
polytechnic
reversed
tendency
##bor
stark
rahman
swim
yan
persuaded
lb
amino
griffith
developmental
teamed
byron
quantities
turin
mayo
basilica
predators
retaining
##rman
supervisor
nigel
dwight
jamaican
sutherland
natives
##tree
##kas
karachi
##uru
mas
packers
krakow
##cene
simmons
satellites
tudor
##oro
##aux
afterward
displaced
tensions
##vie
campuses
discussing
127
##ched
irene
frederic
collectors
stevenson
23rd
pepper
##mond
allison
loaned
##card
cow
lafayette
##most
ja
shapes
processor
emmanuel
transcription
swept
175
scrapped
mets
compression
strand
armour
outcomes
nazis
halt
instant
banker
clash
deeper
surprised
patents
##anda
##chy
bays
filling
resided
translators
unnamed
teresa
node
ceremonial
differs
##nath
sh
##wich
rfc
##rey
fleming
peerage
peaking
genetics
bloody
coined
breakdown
rely
marched
ashes
payne
dunn
violations
sheets
directorate
##nberg
fold
excluding
avant
jupiter
##uda
nave
matching
excavations
shipped
##rer
spectators
resign
sued
dodge
genius
##zes
oceania
oath
detect
memorials
caucus
finalists
cement
computational
amphibians
classrooms
##zong
##iah
##ott
##atus
hanover
elvis
nicaragua
suffrage
wages
segunda
ferrari
abdullah
pyramid
kyoto
owl
##cott
continuity
accepting
##uer
hobart
selective
consort
volcano
##ib
miranda
pursuing
1600
patriotic
##force
silicon
cartoons
resembles
deity
sodium
tunes
conway
walton
smithsonian
clusters
replied
implies
blu
##lor
displacement
prophet
oaks
wurttemberg
socialism
woody
liberals
spatial
email
carefully
##tad
madame
bihar
tertiary
td
finishes
participant
hancock
pastoral
recommendation
counterpart
laurence
transaction
##gt
lucia
flexible
midwest
oz
##hima
highlight
dwarf
gaza
lahore
securing
songwriting
wizard
trustee
pasha
reactor
##berger
##osis
railroads
augustine
tooth
##atic
hawkins
psychiatric
wears
enables
##lings
zhou
##rra
##form
capt
ancestor
ambulance
christchurch
backs
opted
cycles
fury
hale
sworn
1787
statewide
seine
jockey
islander
nationality
annexed
villagers
magnus
##beck
inmates
cope
##14
resemble
##yam
isolation
garnered
facto
lawn
marquis
continuation
chandler
attained
medley
##leigh
kidnapped
lexington
mormon
paved
greeks
majesty
complaint
phenomena
124
bias
vegetables
##lines
mack
loud
tasked
##fan
frequencies
##making
##icus
##lav
renault
showcase
faithful
remarks
soils
##ont
admiralty
gil
##shu
casa
laurel
dominion
steelers
hang
##rr
flesh
aging
dirt
incorporates
moldova
metric
wildcats
assam
##mbo
timing
goodbye
trades
##uki
##40
realize
trauma
hesse
commemorate
demonstrations
##city
amended
inheritance
rivera
##tina
bred
receptors
##ination
##fall
flint
sv
emergence
mafia
lauren
cretaceous
lonely
syndicated
horace
snails
stranger
sergio
royals
flank
##court
favored
##life
mans
yoga
traders
aston
benny
##kha
hbo
staffordshire
##vel
tumor
##lina
orbital
speculation
settling
##rrell
tulsa
dei
capitals
uc
dayton
mercer
ordnance
antenna
repertoire
cone
networking
##aid
##sdale
racer
circuits
diamonds
residences
nucleus
rows
marvin
trigger
imagery
portrayal
burnt
discoveries
regards
ballads
russians
##bles
xiii
turtle
nl
verde
weston
northumberland
affiliates
transgender
herb
##mere
shipyard
tina
reich
olivier
##ete
motivated
hiatus
progressed
compromise
##rina
stephens
panic
##ises
cesar
lorraine
##matic
zambia
amber
##cated
cleaning
unexpected
poison
hunger
succeeding
shoots
strips
recall
darren
stephanie
blamed
jakarta
outline
greenland
##rit
nonprofit
mu
ingredients
encouraging
gdp
marcos
polls
##qi
canceled
##sman
mollusk
suggestion
barack
kidney
televised
190
haute
##set
framed
weaver
forts
resolve
##aries
garrett
traits
calvin
brigades
burlington
##vre
promises
gm
accreditation
paolo
stuff
ivy
sigma
crimson
##uan
injection
##fly
loosely
##13
ave
europeans
verbal
sunderland
albeit
germanic
rama
swamp
feud
incorporate
phi
arranger
##tead
functioning
labrador
##eed
##ations
seeded
slate
lowe
administrators
notorious
evacuated
traced
rodney
donation
heather
##mans
hiking
preparations
wheelchair
capped
derivative
wiltshire
##vsky
quarry
colt
ambitious
partition
##vers
avengers
##sberg
abundant
pulse
revelation
##rley
ct
justices
##vier
recruiting
submit
stained
purchasing
conductors
perspectives
##logists
resistant
##hoe
jennings
decommissioned
wanting
singular
censorship
feared
insight
mint
##law
parachute
sonny
##ride
stance
randall
shorts
calcium
invisible
##dc
##ils
altogether
lengthy
denotes
threshold
crescent
supervised
abandon
dear
persecution
boot
behavioral
semifinal
bury
cultivated
rotterdam
stuck
barely
pressed
spiral
weakened
##oz
treatments
interval
##ovsky
welcomed
##lot
##usion
dramas
##play
##ulata
routledge
vols
laos
stripped
ceylon
gram
mali
##eim
##onic
isabel
sealed
senegal
trim
pas
chamberlain
taxation
##sp
apache
dive
multiplayer
##01
##ement
##yle
##ame
economists
knock
molly
lionel
combines
drunk
hey
costumes
universidad
talbot
judiciary
##urn
##pis
sandra
sophia
crosby
container
pathway
meadows
daniels
partisan
vanderbilt
raven
decisive
2d
accepts
dynamo
debates
mortality
paired
pays
luigi
126
pius
porch
migrated
bmw
survives
odds
implications
stafford
1784
pitching
reduces
minorities
activation
ninja
dove
synthesizer
phones
peasants
bart
##uka
burmese
sophomore
greenwood
shields
passport
bavarian
brotherhood
trout
##tai
ink
shri
choral
##iness
brooke
fence
sexually
gran
uruguayan
presenters
eaten
ipswich
##nko
fortified
mansfield
urdu
crafts
##rov
strengthen
##nate
sinking
##mouth
ec
minds
anita
phrases
drinks
harlem
rim
##load
1200
postseason
vintage
teammates
histories
##18
hire
##ying
guaranteed
realistic
voter
garde
wigan
##ija
counting
limerick
pharmacy
suited
kirby
##wer
modification
suzuki
##bil
paula
brent
theologian
plural
extensions
definitions
##thi
1777
deciding
multimedia
seth
gould
impacts
maggie
scouting
fraternity
dukes
escapes
##ime
explicit
specializing
crush
##fort
una
attorneys
abbott
accomplishments
commuter
ensuring
forewings
generator
substances
##tech
sands
##pop
fascist
steele
fortifications
reilly
proto
##ema
##nian
piper
##nier
aligned
1781
consumed
##lton
gp
darker
buchanan
atoms
fencing
confluence
handful
hubert
downstream
residency
deposit
marxist
celebrating
##iate
cerambycidae
collectively
##bian
fingers
metacritic
aug
cassette
saturn
##tary
storms
koch
leningrad
captains
breeds
devi
desk
introduces
nys
##wr
acceptable
nutrition
bahrain
sm
##rand
lester
##30
##gard
sf
sustainability
violet
##esh
##hole
mozambique
igor
raced
##etti
bark
biodiversity
clouds
horns
logical
##baum
##rton
##ister
browne
havana
drops
turbine
merge
amusement
145
thoroughbred
assignments
bacon
eduardo
salvation
##chan
fears
vaughan
borneo
sega
##zon
650
accolades
goodman
imagination
129
contractor
chaplain
doubled
canoe
rats
##mma
kerr
lennon
landforms
speeches
gable
jonas
regained
byrne
##px
##fying
passive
atom
coordinate
demons
neighbors
##pal
nitrogen
spanning
stein
##dium
##pen
swansea
addressing
olivia
doll
vince
rational
kurdish
rage
breach
notation
##rea
deliberately
botanist
goa
##oth
curse
talents
remixes
boost
borrowed
registry
recruit
granddaughter
##ante
whites
complement
finn
hurricanes
purely
employ
wreck
alias
##front
##lius
kuala
meal
terrible
1870s
1900s
uncommon
nominees
gym
hare
##tron
##xia
heated
##iko
lyric
133
exploitation
debris
disasters
##kka
evacuation
fixtures
elliot
sol
rushed
inflation
mls
burden
advent
##rier
assuming
##я
safely
employs
norm
##nger
aluminum
ou
attribution
rue
clearing
##wind
doom
hemisphere
alert
niagara
stirling
twist
sacked
filmmakers
br
observe
##ille
132
diaspora
collar
cypriot
outlet
bowie
beirut
##nay
mound
factions
attitudes
shores
##key
packaging
##cin
##psis
dash
##isa
floods
luna
undergo
schneider
complained
seventy
relieved
whereby
robbery
1774
diabetes
fuselage
shoe
##ool
poster
rajasthan
mai
##par
cake
northampton
gore
##croft
erosion
documentaries
exports
contacted
breathing
niger
medallists
ladder
##ello
comfortable
1778
academia
disposal
underneath
230
bosnian
lil
reproductive
confined
investor
correctly
gentleman
positioned
bracket
johannesburg
communism
financed
seals
hello
leinster
wendy
##ots
##17
poetic
stack
priory
collaborations
cheap
loch
sophisticated
renewal
##kins
genoa
mir
anticipated
overnight
##boat
26th
plague
alison
bremen
alley
readily
##bic
instructed
approximate
##yar
m2
##kon
skeleton
thrust
stereo
apex
##lls
spokesman
viewer
oversaw
sensor
declining
cab
regency
rituals
solidarity
##α
155
promotes
baba
bedroom
##nds
moist
##nc
ios
##lm
catalonia
subscription
commentators
lagos
dhaka
magistrate
##ske
##witz
prisons
uranium
berg
##air
1782
arte
##fo
modules
210
reorganized
##hos
##jin
cannes
remarked
encompasses
holden
##chia
##gie
homestead
tempo
batsman
bacterial
bert
detached
loneos
rbi
desperate
puzzle
labeled
##pha
kw
##wu
locks
observers
##ural
##code
extinction
##quest
enzymes
punches
##sl
guarantee
gentlemen
colombo
assassinated
winged
##nna
maid
thornton
##aire
savannah
1700
comparing
scripts
mama
bees
throat
27th
centennial
dramatists
##ank
brandenburg
##kawa
hereditary
oman
laying
dad
ein
physiology
rode
tyne
appointments
reyes
icc
trombone
insufficient
illustration
platoon
##hed
concentrations
starr
chevrolet
##iation
airs
labs
secretariat
throws
##has
robbie
decay
hercules
qbugbot
announcer
orchid
atop
clip
satisfied
expeditions
##sian
archibald
hanna
interred
chronology
pilgrimage
miniature
sylvia
affects
prostitution
mistress
144
honolulu
alternatively
matched
##uf
ensuing
negotiated
psychologist
ant
gifted
catches
statutory
overhead
fowler
insect
pointing
zur
targeting
acquiring
emphasized
reggae
ministries
##xa
molecule
fix
evelyn
meditation
##far
pietro
scenario
brittany
##quet
lifelong
expired
chances
aluminium
retrospective
solving
usl
##uring
anxiety
apprentice
hogan
declaring
undefeated
##tro
surgeons
##ø
exceed
##rl
memorable
ole
##nar
technically
natalie
individually
basil
##ogy
##vable
kathleen
numbering
suspects
forget
lobby
okinawa
eponymous
guys
##oke
competes
promotions
structured
wakefield
##tric
valign
offspring
macau
resorts
genuine
coupe
iconic
wan
##cci
laurent
##kowski
1763
synod
upstream
##rp
giles
listeners
##gna
gymnasts
##gra
asserted
##tling
successes
afraid
myspace
cemeteries
huang
maybe
delivering
austro
##lag
triangular
wholly
bollywood
##iss
##burgh
##cens
geometric
chu
emerson
blades
precious
##hd
dioxide
chin
165
bruins
fringe
pools
expect
##hana
angus
accusations
arabs
occurrence
demonstrating
hoffman
squares
screens
levi
fierce
heats
engineered
mutations
barbados
balanced
crossover
helmet
ku
cowboy
pipes
andres
guggenheim
detained
guam
aus
latitude
yourself
##cas
boots
expeditionary
linebacker
##nza
beginnings
131
irvine
lumber
essence
##long
##walk
leonardo
seated
##av
histoire
##take
saunders
##metric
realism
##dus
rai
demographic
reissued
rite
veterinary
##dad
##lling
##ight
##cross
rotating
tips
pi
dramatically
jensen
springer
norse
bare
htm
##hm
hymn
occupies
pitt
advertisements
domingo
redevelopment
1786
snakes
drought
##gren
demise
jill
pl
venetian
discusses
##zone
cosmic
##hes
arise
sunny
marty
progression
robots
##him
tricks
hu
##ost
projection
aragon
angles
subjected
expressions
amendments
hydraulic
mortar
avoiding
pushing
##ght
##vs
##heads
ears
tended
##lson
##haven
productive
willow
barrow
birthplace
bangladeshi
castile
donovan
cardiac
ducks
slip
representations
##ais
diplomats
darling
##ste
styled
xiv
intimate
groove
sufficiently
##eth
assessed
mgm
##itor
granada
stella
lacks
announces
heidelberg
hatch
##uth
amphibious
compulsory
nhs
##iff
##tton
proportional
bean
##holder
unaware
bolt
nr
perennial
sant
##fields
financially
nam
##kill
retains
##eno
treatise
fare
##jet
##rta
clive
cannabis
katie
##rah
harp
goalkeepers
umbrella
sergei
delays
1910s
investigative
xv
reginald
acc
tenants
uzbekistan
nodes
elias
historia
evan
##ache
submerged
##cent
lawson
pedestrian
unionist
nikolai
cds
##sted
##uto
juniors
prestige
assisting
##zz
##eng
grape
pulitzer
defendant
##ota
precursor
vowels
thirteenth
antiquity
repaired
unusually
##eter
redskins
drill
schooling
esther
plc
tapes
liability
##ffe
##rail
beef
airplay
nursery
baku
plantations
wolfe
victorious
##anga
##cki
presently
kenyan
hai
depend
selections
cyril
weiss
dartmouth
gale
##lp
##hand
aliens
##urg
hostage
zhu
##hold
superhero
australians
deficit
sevens
##rda
hr
boulder
sharma
beethoven
nominal
##phon
blank
##60
torah
##inda
lime
exiled
explores
relied
1785
arches
airplane
balloon
apparatus
joke
discourse
bloom
niece
organist
edu
dominance
dwelling
marian
armament
joao
prayers
##0s
##dock
barriers
musicals
unlimited
laureate
tolerance
addiction
maj
infrared
obsolete
##bourne
slogan
mandarin
courtyard
violinist
outskirts
melissa
tuberculosis
notoc
1779
nowadays
reside
lowell
postponed
camping
stripes
premise
prosperity
rebuilding
chung
extraction
136
numerical
##oria
azerbaijani
equilibrium
postgraduate
void
##е
reconstructed
bowler
nile
appreciation
sheridan
bullets
flour
gibbs
occupying
ghosts
##llen
corrupt
chairs
identifies
indirect
netflix
codex
cote
vacation
expressing
intentions
##hel
modeled
##о
explorers
flooded
##kos
##ographic
tong
##zio
anterior
##ured
olga
neville
pg
£1
geoff
##ution
adjoining
##pol
heavier
adjusted
dominic
##lah
practicing
sioux
##nted
lava
neighbor
shocked
turbo
damascus
##outs
dinosaur
bern
judo
nguyen
statesman
qualifications
##aru
workforce
##lies
updates
##ctic
roth
baritone
dried
averaging
messenger
##etta
##ited
endowment
abs
##ndo
alain
gasoline
##like
everett
##tate
##asia
##vey
1860s
coordinated
mccartney
harriet
litigation
samurai
bloc
rutgers
138
a1
permits
printer
##ech
##gers
bordeaux
watt
endurance
commandant
wilmington
abolition
zhao
caste
rodgers
duel
##pc
paternal
##erty
constraints
soup
symmetry
28th
sixteenth
liz
daisy
owens
##rre
wool
prevalent
lately
transferring
frankie
wii
polling
sq
onset
bon
corresponds
treating
emil
pie
deluxe
mao
frigate
twilight
kaiser
concludes
1750
referenced
tractor
##ppa
sanctioned
bud
farewell
skater
announcing
chord
shade
##ifying
49ers
##unt
becker
commando
zu
alike
cinematography
prefer
homosexuality
iucn
mortgage
preseason
soundtracks
##19
##ngo
##wyn
klaus
racecourse
afford
shropshire
wikitable
pending
##urt
marseille
php
##ologists
##yard
##ced
needing
rental
rented
juice
unconscious
medina
smile
debts
##gio
##thy
noun
secretaries
clifton
cum
rendering
##mates
##cer
chatham
haunted
counterparts
similarity
paso
##writing
turnout
550
baxter
inferior
1660
reluctant
shawn
##ffin
hertfordshire
inequality
prominently
infections
strengthened
137
julio
nichols
prone
greco
disappearance
##rel
##ented
principality
rupert
underway
##iri
plug
lepidoptera
brake
huntington
puppet
implementing
teddy
##rata
adverse
moody
##vid
honest
gubernatorial
truman
promoter
critique
quincy
ti
norris
##orum
pr
nationale
une
spans
##ław
outreach
busch
honorable
examinations
141
dir
occupational
##ug
inscribed
declare
relates
romanesque
earthquakes
stealing
inform
mariners
##pie
##iving
cliffs
hilton
scarlet
##fication
unrelated
tally
calm
punjabi
posting
emotion
caucasus
##nding
alvarez
sensors
##rix
##ners
wouldn
##yman
ds
sd
blame
jeanne
neighbours
methodology
lizard
wiley
##uli
forensic
overlooking
##genic
emission
1770
orioles
islanders
##hc
##ave
accent
unfinished
alexandre
cola
##dong
##tical
instrumentation
implied
marginal
pomeranian
##pper
##sters
privileges
radial
satirical
##nett
bowls
bilateral
##cos
##night
judged
lantern
tipperary
applicable
acquisitions
##ifies
teatro
##beat
negotiate
fundraising
offerings
##iu
##cca
archie
freddie
takeover
gavin
triggered
inserted
homage
cheng
affordable
pal
##plane
patronage
bahamas
natal
spectacular
denominations
innovations
entrants
discovering
pagan
worthy
##nov
wines
gravel
admits
markings
halfway
motivation
strauss
humphrey
##core
ud
cordoba
purdue
##bius
marino
##ried
batch
conscious
baptiste
investigators
swords
##yah
rwanda
bent
280
##ust
enrique
cease
eminent
##ssen
exams
gerry
xu
##acy
reliability
emerge
compare
malik
interpretations
##wise
##hra
townsend
##80
basal
harder
majors
concentrate
oxide
ancestral
confrontation
monotypic
ida
posterior
lowland
blocking
recognizes
ruined
##tidae
institut
##game
##ares
##uddin
##onal
v8
kang
plots
baton
limiting
##eet
##yon
instituted
##izer
##ook
audition
complexes
134
concord
warwickshire
marilyn
##strom
joaquin
spells
villains
cop
cousins
nathaniel
##sai
napoleonic
nineteen
xvi
##aga
loire
accompany
verdict
152
dante
sainte
stomach
unidentified
refusing
solicitor
atari
slender
possessions
kilkenny
##yev
lakers
possesses
bug
confronted
creativity
ada
ghanaian
flats
cp
neural
uncertainty
allocation
broadly
rejoined
lounge
utrecht
##rama
fourteenth
seventeenth
corporal
botany
mauritius
judoka
motorsport
racehorse
yuri
##ob
shifting
##rae
riga
vc
engined
dose
##mbe
guerrilla
whip
fulton
thief
mba
##chin
curry
troubles
conversations
thread
##iated
rhythmic
captive
##vil
##yx
ceramic
subordinate
soviets
ordering
sensitivity
##ingen
##gler
propulsion
225
wilkinson
middleweight
socially
eisenhower
peasant
savoy
cooke
tara
nu
##rne
einstein
gb
##oll
converts
advertisement
librarian
facial
cam
morphology
audit
2021
ned
##uss
answered
algebraic
deborah
noir
peel
pune
testified
retailers
##mie
feathers
bohemia
musee
shipbuilding
precisely
etienne
fielding
##shin
cane
simplified
mutant
insignia
bonnie
resurrection
blend
260
##num
turret
pauline
##nos
careful
liam
cha
exceeded
treason
beloved
grandchildren
chips
pact
bugs
emile
inactive
osborne
##bit
rover
excavated
revue
##rade
peterborough
fried
peggy
vega
##sca
amnesty
raleigh
shelley
examine
##combe
harding
##duction
ramirez
passages
renovations
##qua
##bl
beard
recruitment
##urus
intervals
defenses
discharged
archived
##rington
catcher
40th
270
##yana
terra
1850s
cord
viktor
##uted
militant
cartridge
toulouse
davenport
##agh
cubic
##books
##ision
anders
hamlets
intersections
##ander
##erly
nobles
feeds
lac
mae
humid
teenagers
vein
##yas
concurrently
##rdi
muscles
staging
##stown
overs
squash
##iques
raphael
grouped
habit
dalton
serbs
malawi
nos
##sz
##cut
143
lenin
martyrs
##rana
functionality
workplace
oracle
brendan
ok
29th
basically
reissue
##mos
attachment
##ony
siding
flynn
pronunciation
mountainous
##lc
##uated
blackpool
devotion
1772
undergoing
javier
shareholders
turtles
##jima
sacks
fixture
fog
hasan
communal
obligations
##iae
hussein
palatinate
processed
turf
##lica
russo
reasoning
flo
michele
bahn
tissues
##jar
cube
nippon
ware
cyber
patrons
##ntes
mosaic
sept
aces
crusade
abundance
capitalism
flyers
##ams
absolutely
fencers
##yr
tucson
##cle
garland
maltese
ashton
deities
comply
##hore
dickinson
łodz
##vity
mural
refusal
##qui
equestrian
respiratory
expo
##eira
confession
mon
verbs
##how
liberia
winger
##pass
receptions
##uel
steadily
##rock
humboldt
wetlands
intake
induction
cancellation
##uchi
##ucci
##weight
brewing
##nya
authentic
strikeouts
tiles
cs
reinforcements
recovering
combinations
dillon
heroic
cruisers
locate
slalom
##color
everywhere
cadets
##iga
meadow
contributors
##piece
##group
exotic
replica
summoned
derivatives
tidal
teens
honoured
steals
##lidae
##stad
chandra
quotes
plenty
woo
inability
divers
shrub
##ibility
exchanges
dans
reminiscent
joachim
optimal
unanimously
sanctions
barons
##care
slower
##station
deadline
regain
regulate
##dam
subdivided
##kaya
harassment
rosario
eighty
specials
##itated
uae
breton
##lov
depiction
##hman
preserving
blockade
breath
solved
refuse
mcgill
vicente
westward
afb
borne
tap
orient
jaw
extract
##ators
granting
alcoholic
czechoslovak
##lane
twenty20
predecessors
transparent
readings
somali
jade
nyc
schwartz
boyle
conferred
ign
##not
patriot
surf
jays
definitive
danube
periodic
lamp
captained
##backs
zinc
spokesperson
damaging
replay
investigator
gonna
monopoly
##hic
rolled
elevator
trench
vanessa
positively
propeller
canary
discs
tramway
##ania
dexter
waterford
richie
electrons
picking
reviewing
rep
reprise
happening
##eria
##writer
320
immunity
beaumont
coding
##erie
digit
namesake
humorous
##ages
planetary
##ark
100th
##bay
chargers
servers
metallic
mb
confirm
kappa
presumed
comet
violated
##aurus
canals
jacket
alexis
deacon
alba
##won
omega
##uz
sauce
failures
scholarships
nickel
wichita
##lled
sikh
beacon
canadians
##lish
panther
perfectly
krai
seller
luftwaffe
db
##phic
ideals
##iest
avon
nwa
##asa
holstein
identities
eligibility
homosexual
sarajevo
economically
conceptual
dolls
annals
warships
##trom
reviewers
builders
cornish
nagar
necessity
accidental
goose
##oides
integer
lumpur
newsletter
sammy
francaise
heinz
501
incredible
suspicion
leiden
##ink
wrapped
##nton
fraction
1761
jewelry
rebuild
haleakala
militants
amor
brush
concacaf
habsburg
resume
visions
pillars
147
##ures
##uation
famine
marathi
vijay
diplomacy
interception
##rth
bamboo
presided
##ider
bubble
nicholson
gases
marquess
##liga
restriction
utilities
archaeologists
recruits
differently
specialists
##nous
##ient
daddy
recorder
giro
mia
arbitrary
doris
suffix
cornelius
choreographer
rappers
creators
##bahn
realizing
oldham
belmont
infectious
directorial
ile
ella
lottery
diagram
lockheed
##lma
donor
macarthur
tracked
balkan
surpassed
laurie
liaison
espana
simone
halloween
siberia
suppression
grossing
sells
hubbard
melodies
zombie
accounted
lyons
amid
##max
charging
bourbon
praising
rumors
syndicate
electro
ethnicity
behaviors
panzer
ordinance
shine
troubled
communion
forrest
ins
##eal
lars
mater
migrants
spinning
putnam
##ctor
transitional
stairs
physicists
posed
assess
centro
185
jurassic
ffffff
exported
fitting
rand
contests
mclean
greens
lam
sundays
##etic
veronica
retreated
comprise
mackay
##case
accurately
citadel
eyed
persia
1760
databases
##igo
sultanate
volcanoes
noon
laguna
excavation
meridian
oversight
##lford
watkins
marin
##yuan
backgrounds
clearance
##isi
wyatt
##sible
##ffy
fool
constructing
##pic
##aceae
coastline
productivity
##girl
managerial
inactivated
alarm
bohemian
golfers
##ike
concurrent
waived
alternatives
##cter
vacancy
aide
cartoonist
dem
monumental
rockefeller
operatic
oxfordshire
feminism
##sd
botswana
manifesto
charlton
biographer
##gn
probe
accumulated
afro
shrewsbury
squads
suits
playable
infinity
inadequate
jain
markers
142
protocols
centenary
qualifiers
flores
emblem
##forth
bentley
strasbourg
weekends
nolan
guilt
incarnation
belize
climbed
discrete
procession
subdistrict
explosives
tear
goat
##iger
139
lowered
reflections
barney
everton
conditioning
sid
imprint
##dh
##nical
##worthy
claudia
invasive
patrols
edison
##ket
brennan
##cke
torque
desktop
##hire
lds
##hora
stays
allegiance
je
deposited
eliminating
dispatched
temporal
regimental
liang
gorge
experiencing
issuing
##itive
licenses
##hawks
stunt
guyana
reconciliation
ads
hardly
forested
lip
meals
unification
80s
devised
reddish
blown
nissan
andes
weir
reno
morse
berger
hui
futsal
handicap
##moor
taliban
bluff
rd
burst
logging
##sive
##park
ernie
##shing
fry
outfit
##tty
151
conan
##ake
##houses
beatrice
petit
hutchinson
##lles
primetime
viable
##oga
receivers
weimar
antagonist
habits
possibilities
eli
pulp
mughal
ge
alejandro
commemorative
146
exciting
suspicious
##hor
nottinghamshire
categorized
ecosystem
tavern
brock
globally
usd
31st
browser
lagoon
pulling
reigning
inlet
slim
liege
ravi
soloist
sights
1768
confirmation
assassin
etat
wwf
dusseldorf
opus
employing
wembley
antony
pressures
warming
babies
traction
##kara
crude
hulk
inauguration
##ashi
pizza
upright
beneficial
thickness
launches
lyrical
hydroelectric
nz
seniors
chat
stadiums
profiles
potato
distributor
##polis
contingent
academie
guerrero
archaeologist
bowen
##iere
apartheid
caldwell
packages
royalty
leicestershire
lethal
substrate
preacher
thor
probable
ravens
infamous
unopposed
diagnostic
chiang
##dating
chestnut
analyses
nowhere
wagons
stressed
cables
colonists
societe
lea
naturalist
##wy
daytona
nuns
congregations
paz
palermo
mongol
oppose
skier
popularly
resist
campaigned
freelance
scandinavian
darts
offence
tottenham
candidacy
##tly
sampling
middleton
nat
##lip
rails
##owa
dal
magnificent
##geny
branding
informs
kensington
killings
surveyor
sci
vocabulary
##pro
depths
gus
titan
salzburg
bhutan
notices
##raj
##iology
madhya
banana
sumatra
hq
coliseum
ramsey
felipe
##sten
wta
podium
meredith
##mers
standardized
touched
##ssi
##hoff
pascal
ions
##rb
martyr
suppressed
##rca
honourable
pigs
ceramics
hurdles
imam
##sat
feudal
surroundings
devastated
##zin
golfer
alternating
consultation
carrie
nj
unrest
odi
205
baseman
##hine
tablet
##path
##mology
dismissal
absorption
fifteenth
hut
nationalists
chiefly
153
rogue
##lity
##adi
enlightenment
##iba
divinity
libretto
penguins
pioneered
motif
202
bas
154
tragic
currents
proprietary
fertile
##eca
directive
boiler
lemon
ps
disciplinary
pneumonia
##rion
dignity
signaling
fulfill
relate
##cular
mccoy
proclamation
##bell
##nsky
finances
boone
worcestershire
156
focal
##nch
packed
crowds
pits
##uke
gala
concluding
brewers
##dies
tire
shelf
innocence
epidemic
gallagher
symposium
choke
##hp
croix
speculated
aero
bernie
burgess
bust
stud
rejection
nightclub
heirs
vacated
chromosome
playground
madness
ri
guangzhou
##ridae
resolutions
tutor
incorporation
piedmont
caledonia
privilege
subsidiaries
##anus
##culture
mentally
sweep
picnic
tuition
##rain
ang
##nard
birch
cites
temperate
halted
##aan
neurons
tense
##eti
167
indication
considerations
surveyed
reservoirs
hiring
##cliffe
troupe
sgt
mona
shankar
fragment
##fin
reply
##cence
constance
rower
##rson
vhs
ascent
postwar
##chel
irwin
##nock
shifts
olympia
##gated
spears
parameter
brig
robust
nate
chavez
eaton
##enko
dinamo
frogs
##ł
stanton
pressing
libyan
gentle
mutation
tombs
anchored
crack
psychedelic
##att
clashes
##mount
abel
##lich
oilers
abbas
combustion
hazard
neighbourhoods
orchard
farrell
surplus
zen
coca
sunrise
karate
##top
theresa
drilling
famed
oswald
weird
poznan
consulate
incoming
ballots
erotic
##sbury
##gent
velvet
organism
persistent
rom
hymns
##odes
sud
##ril
wash
##stra
##kle
##21
eos
zip
murderer
stade
fairfax
blackwell
prefix
strengthening
1767
proposition
profitable
tens
##ede
201
baja
##pace
cockpit
menu
##bet
papa
cobb
##virus
##mir
doping
cocaine
wax
ahl
pueblo
somebody
spark
kernel
screenplays
ke
jong
subdivisions
demonstrates
toby
assumes
sting
harmonica
legislators
raul
bags
1766
eliot
unstable
lara
obscure
mirrors
satisfy
museo
solitary
soo
byrd
textbook
amos
merchandise
kitty
moreno
ruin
gaa
routing
bilingual
stocks
##gua
geelong
glaciers
cascade
entirety
benton
parma
foreigners
hokkaido
welterweight
suzanne
franchises
isil
snyder
sami
butter
observing
lsu
grange
fairfield
hicks
##vale
accelerated
shortage
##eni
shake
accession
disappointed
crushed
doncaster
playback
##lights
prompting
guinness
##oning
transparency
covenant
desmond
punt
brakes
hoover
woodlands
brunei
##oko
##idge
degradation
sympathetic
choi
yields
kara
westphalia
cyrus
alterations
cfl
unchanged
commenting
porsche
sparks
morales
##rid
##suke
crashes
travelers
kidnapping
thank
##zhi
wesleyan
rigid
collects
##vu
nobleman
mongolian
##run
watches
encourages
choreography
crossings
1773
scorers
##iting
biographies
moor
yukon
eco
correlation
adapt
posters
singaporean
distribute
unite
samsung
##moto
unprecedented
nas
##rica
talked
royce
wi
##lde
medication
mysteries
colon
marijuana
juliet
##ull
exchanged
##lian
furious
kramer
##wari
ghetto
fined
consolidation
converting
earnings
##uit
giorgio
evaluated
robbins
##lda
bp
eddy
galicia
opener
sunni
albuquerque
chancel
ark
skate
imagine
##rative
arrests
cromwell
samantha
translates
poisoning
protested
illusion
##tated
bella
carpet
##lessly
##cting
##iki
dressing
amalgamated
arguably
##fm
##ndi
##tani
stole
##bble
andersen
hindwings
kapoor
myths
mod
##ono
prasad
prelude
##dog
contemporaries
outright
##cula
evergreen
arrows
dinosaurs
##igh
##vian
contributes
paddy
256
uncovered
dom
tent
wharf
##name
selo
booker
usaf
dig
captivity
prolonged
fresno
liquor
phosphate
jumped
149
hampson
centred
subset
##vision
welch
butcher
minsk
##tow
mendoza
offset
proposes
attracting
beans
drain
piers
landings
staircase
##nca
accessories
##bound
##ury
aggression
modernist
monastic
calcio
clans
waterfront
exploded
propelled
cobra
cooled
adopting
alessandro
mast
posthumous
quote
defendants
invest
##insky
eun
lois
lenses
compilations
tyrone
apr
cortex
pony
rotary
erich
##smith
##hun
850
coconut
presley
##erson
expresses
vine
##wave
grip
vegetable
photographed
resting
##lik
fungus
prescribed
motifs
##lund
##lana
reeves
persona
##ads
##lake
burnett
pts
reel
##grave
incorrect
worried
resembling
##nies
##hot
##ground
merry
battleship
deportivo
skinner
gps
playhouse
182
caliber
socialists
mcmahon
huddersfield
originates
crete
shan
boycott
jurisdictions
corpse
sino
moran
flotilla
mont
dioceses
guardians
signatures
148
intercontinental
sheila
pamela
amenities
##ulo
cheltenham
bwf
salle
spinal
validity
bombings
gmbh
definitely
iaaf
odyssey
banjo
dispersed
unpublished
##quist
janata
tr
lublin
ponds
vita
##lby
tired
cruel
jessie
ramp
subtle
nets
edo
silesian
168
amherst
##bis
texture
##cea
plata
tones
anarchist
##lab
##azi
##ptera
examining
litre
stellar
##gation
brutal
##zawa
hindus
saddle
alt
josephine
curated
warden
lydia
grossed
instantly
reorganization
bleeding
specialised
##pling
fia
coffin
rebranded
drowned
330
realised
socio
timor
##garh
finch
##oids
acceleration
intercepted
killers
##sto
##rung
glacial
##iq
##rane
##hari
goldman
waterfall
mosques
fleeing
sparked
nightmare
racist
shia
kung
meteorological
theologians
psychiatry
##ario
##eye
proving
openings
determines
italians
aquatics
##yre
195
benz
cinematographer
stranded
mandated
ankara
##100
##wei
scratch
##elia
cache
distress
principally
restoring
assyrian
northamptonshire
##fen
##ilis
cumbria
romero
##bby
libertarian
wolverhampton
fest
recognizing
drift
diver
hinduism
lent
elaine
obstacles
pillar
excited
prevents
metropolis
shootout
python
derry
exhaust
visibility
cody
hospitality
##evich
confronts
imports
greenhouse
patented
##enia
firstly
meantime
shirts
eliza
decreasing
headmaster
subscribers
ambient
rossi
##eum
##qa
upheld
##von
mantle
scarborough
smash
culminated
inventions
sandwich
harley
ling
brewer
mistakes
polynomial
##quent
pose
##rino
blessing
composing
ranged
stratford
161
loser
##tur
mortal
barred
##osh
ankle
forge
alvin
##yk
1759
resonance
casual
##elle
##kova
characterised
vaccine
assemblies
departing
sake
curtain
##llus
evaluate
rd3
galerie
##hawk
vogue
grocery
ministerial
crystals
##dr
cpu
contractors
simpsons
##tism
neoclassical
motorcycles
kathy
##enham
overwhelming
stretches
dividing
portraying
lesson
academies
exclusion
futures
amir
sindh
portrays
outlined
1771
##ggs
##nti
pleaded
ratified
atkinson
##comb
commencement
##sser
depict
cinemas
defences
reddy
##text
cain
escaping
buckingham
piston
colonization
godfrey
yokohama
192
fertility
ngo
##jit
cooked
underworld
saxophonist
antique
enjoys
rhetoric
##jiang
overthrow
ponce
foley
continually
redesigned
turbines
ul
electromagnetic
jasper
bauer
compton
stockton
enthusiasm
torch
displaying
sentiment
weekday
fife
hanson
bonn
otago
mainz
buccaneers
encoding
anand
sep
sts
##sal
relics
bind
##erman
entrepreneurs
charting
dar
zoe
infants
##yra
mla
##wicz
##bine
##gawa
ruiz
ego
fda
norte
appoint
joanna
daly
##evic
arbitration
enforced
policeman
90s
jewel
##iman
denomination
##ν
internally
metabolism
##ogical
planting
nun
ismail
nrl
mixtape
##yin
rutherford
##jos
##leaf
judgement
meanings
reelection
##eley
ff
vishnu
cb
bucks
sul
chrysler
##jah
khz
specializes
profound
terrorists
dd
eton
persuade
substituted
thumb
weighed
##nant
bricks
boer
disappointing
##ald
##gee
##lion
semester
paterson
reverted
friction
buckinghamshire
graveyard
##phs
accountability
culminating
##inate
dug
##mata
execute
##holm
aiming
jew
wit
interceptions
sims
##rod
pokemon
##wear
215
##ously
suffers
relocation
crossroads
confederacy
firearm
ridges
ramos
yankee
patches
relies
rothschild
peripheral
obviously
immigrated
justified
darlington
alloy
merging
##sos
leap
admired
deleted
ajax
analytical
gao
mechanic
tenant
avery
##date
tonga
friedman
yong
steamer
gma
haitian
sleeve
enforce
##οσ
malone
spectral
satisfaction
appalachian
157
utilize
rabbis
tunisian
oceanic
quintet
damon
ky
slaughter
##was
##vent
vuelta
entertaining
minded
wherein
stony
houghton
wanna
buckley
polymer
162
brasil
pathways
anymore
screw
mig
amelia
farmland
alec
oceans
rhodesia
amtrak
escorted
philips
sprinter
lucius
##ume
briggs
##rous
statutes
omitted
elm
resemblance
nuremberg
goldberg
howell
##tadt
hanged
colchester
api
##hey
rains
empirical
dail
margins
aristotle
diaries
criticisms
mlas
olsen
##oun
glider
163
precinct
1769
axe
differing
donnell
dwellings
diocesan
tx
vilnius
separating
utilizing
unhappy
##uca
keller
portray
sink
rancho
##ili
##tem
frustrated
nude
practically
washed
ambrose
odisha
satire
tsar
aux
adler
odessa
provence
straits
telecom
twisted
sparrow
bt
detailing
firmly
lyricist
obligation
ordination
bunny
intellectuals
valves
deported
##rist
rudolph
miscellaneous
pigeon
click
seize
topology
eruption
##erton
builds
splitting
worms
bernstein
prospects
##tner
refined
autobiographical
beaux
nk
emperors
favoured
##sum
1715
mom
rites
##rak
climax
##hing
schleswig
annex
crusaders
##tag
skip
deny
##vate
detainees
elders
versailles
##ope
automation
##ific
vanguard
##dl
turnpike
seahawks
therapeutic
chooses
contexts
##holders
erect
##cheng
1765
##skaya
70s
angular
beams
##ych
perimeter
##unda
processors
nora
offences
docks
##anza
##ysis
onward
bravo
##nstein
petrol
##nine
lifting
##elin
catching
weakness
shining
##aud
cynthia
sensory
neolithic
guangdong
##pet
fiddle
valerie
##sler
participates
elephants
##gis
##now
aba
morality
aforementioned
kits
1764
ju
##ind
bottles
antioch
fishermen
calculation
correspond
criterion
pad
##rz
##coe
interdisciplinary
158
##grad
marrying
##eli
estuary
##ulia
catalyst
motorsports
consonants
bunker
cw
indicator
aft
om
jokes
##get
arrondissement
eurasian
##rai
affinity
manned
subcommittee
##yd
variously
##erus
##see
tar
hiroshima
pasadena
##uter
cho
235
biologist
hatred
vernacular
##arian
elegant
barlow
jammu
##watch
fibers
itf
##sque
whales
palazzo
analyzed
canonical
cbn
1762
##dha
lattice
universite
##lated
mecklenburg
guiding
preface
##dder
dolphin
norms
275
hee
destructive
preview
##omo
astronaut
##morphic
dominate
mastered
syllable
##ih
1640
packet
flip
andrei
bayern
##boards
ulrich
supplier
willy
inherent
clown
prediction
dealers
qaeda
##stock
yorker
intersects
sichuan
devastating
axle
m3
penal
##oya
astros
spurs
ottomans
##bba
gradual
ideological
attested
abd
delivers
pledged
connell
sanitation
install
horton
mat
maximilian
apps
171
ambush
anaheim
##lift
woodward
212
generators
nad
webpage
1754
fiat
franciscan
##plex
modelling
mohan
potassium
adobe
passionate
lim
milano
jaime
syed
lamar
##eto
##idea
seville
##wes
announce
##lai
vickers
ballroom
kicks
##naire
undisclosed
undertake
sar
##imo
mirza
disciples
toni
##uil
arid
belly
terminals
quaker
shelby
uber
wally
disqualified
malaya
mclaren
cutter
wholesale
##uni
narrated
##rose
mole
dial
inductees
settler
trusted
segregation
wien
cheaper
coaster
flavor
nicola
wicked
stretched
deeds
emilio
##lard
mitch
creed
convenience
##06
alicia
##ael
analysts
npr
1840s
arbor
##iard
bliss
jacqueline
##cate
##itas
pathology
##gaard
apocalypse
cite
montenegrin
provost
merrill
unmarried
theorists
foremost
sherwood
hitter
rhineland
remixed
ariel
roofs
##ption
##sche
##some
##jer
##zione
seminars
aquarium
##ocation
disturbed
mystic
retrieve
hydro
playboy
##isk
intro
blonde
##lat
yahoo
##tana
courtney
gregg
stretching
##32
##sport
willem
champagne
benin
rodrigo
##jk
comparisons
hillary
mandolin
copied
luca
mock
sharply
switches
##ager
presiding
folding
tasmanian
dunedin
weights
daylight
kicking
shu
magnet
mma
shy
##tley
shelters
ashore
artery
charm
qi
##frame
##rice
ensured
moose
ortiz
otis
padres
##gam
che
##rom
##elling
##gb
radioactive
faber
gertrude
##ttes
restructuring
warbler
164
volkswagen
unused
buzz
##ista
jesuits
##press
advertised
clinics
recycling
222
##hur
##lea
knoxville
digits
##05
expose
parole
convex
farther
##pole
sect
questioning
surge
gradient
sedan
malls
meta
flexibility
levine
exceeding
blanc
conscience
expulsion
rift
extracted
rewarded
unix
recalls
##yde
babylon
203
181
threatens
spun
luc
midst
deposed
liberties
wilde
##bies
calculations
##pf
integrate
orchestras
concession
transverse
caracas
pavel
admit
##atory
africans
monmouth
pleased
wills
##egan
##tl
gong
potomac
##yen
checks
garfield
pyrenees
##illon
jurist
sack
th
germain
undercover
acquitted
f1
##pton
epa
loops
priesthood
shale
insane
indirectly
laden
##86
##olved
weightlifting
kendall
reject
spine
appreciated
208
gu
northward
annexation
dismantled
trader
atlantis
##islav
foul
##iling
clair
##rik
##flower
##hop
alonso
elevations
##thus
1740
##ppy
colliery
castillo
##uo
##70
##25
206
##gc
outlook
stokes
##tting
bing
gymnast
maturity
ornamental
cod
bernardino
denounced
crimean
##wig
spends
semiconductor
overlap
surround
alfredo
bail
demos
cougars
ferries
geologic
newcomer
italics
sic
mitsubishi
superliga
lasts
outfielder
##tier
neglected
practitioner
tango
##ibe
##tam
asa
supermarket
tortured
159
textiles
ljubljana
imdb
burt
deficiency
166
storylines
##print
vaudeville
conducts
educate
hm
mayoral
mx
fremantle
gaston
##yla
##σ
pedal
mating
##iza
##avia
rematch
laugh
rudy
manipulation
1755
termination
enthusiastic
greenville
promptly
mustafa
seminar
denny
##iano
sheldon
jaguar
cannons
denise
##llis
sticks
vitamin
176
conclusions
wilkes
url
setup
viruses
inclusive
volunteered
djs
reassigned
polk
hayden
applicants
nests
unnecessary
novi
wight
generalized
masonry
eastward
valle
likelihood
##eve
rte
yen
berth
whig
whitish
archery
exempt
##ffs
sac
##rium
christoph
melodic
quad
pork
hapoel
continents
jealous
pornography
##zine
spies
como
ethel
##cic
confident
ugly
filing
simultaneous
##lier
b0e0e6
quasi
cfc
treasures
obe
##xin
genealogy
##ologies
verona
rc
alderman
reliance
reprint
##cious
##west
geo
bethlehem
enduring
leopard
dynasties
1753
bankrupt
visually
gunther
hailed
##bria
169
undergone
campaigning
tallinn
pomerania
##cre
##ules
newest
por
##inated
successors
urging
corey
icons
##lein
celestial
cerebral
haifa
spartans
##hak
ak
symphonic
hara
saul
blanche
##cote
psychologists
donors
pearce
tying
172
yiddish
grazing
##ivo
vida
allah
barr
##mmer
generous
caretaker
novgorod
##cite
ciudad
##asi
letting
pembroke
hairs
technician
surprisingly
debated
loads
adaptive
garner
len
illegitimate
177
winding
electors
1650
rainy
unexpectedly
chairperson
containers
monkeys
sympathy
##esis
disappointment
1745
##ues
sunlight
algae
pseudo
conclude
375
211
faso
##ggio
##tri
hazardous
musica
protestants
worm
dictatorship
##zie
##ienne
fearing
##onne
leafs
minh
embrace
##wc
faculties
##bey
hostilities
collier
stevie
##ischen
defects
##aba
gig
##24
##dio
nickelodeon
toilet
wen
barrister
costly
milestone
poole
thoroughly
geologist
constitutes
##dial
foreman
dixie
het
surprising
##iaceae
##uin
veins
decreases
abe
##02
##gues
##mt
nomenclature
exits
sloan
##dicate
ants
epithet
hussain
customary
collingwood
exodus
syntax
digitally
##inski
conquer
digest
certificates
labelled
taft
barrels
disused
modular
burger
backward
confiscated
auguste
##gat
grapes
sarawak
##borne
bali
accord
shear
confront
mess
conditional
##cts
programmed
##pac
##inia
bowman
lamps
lan
stephenson
drummond
trams
cambridgeshire
sparta
sensation
supportive
armenians
capsule
##tock
consonant
##dhi
rae
viceroy
dai
1707
lao
leaked
##uti
parkinson
lena
mckay
megan
drummers
##aran
ea
cecilia
spear
arising
bs
minus
##hiro
##48
compass
predict
sustain
##pr
##llum
leroy
convergence
presentations
tehsil
carmel
harmful
hooker
diminished
haryana
##rse
allegheny
organizer
sahara
denial
longitude
erin
halle
caution
##acion
somehow
##wart
burkina
vendors
183
nuts
canadiens
##kumar
organizers
buffer
canopy
sears
melville
rink
hubner
quentin
tuning
##90
peabody
spherical
besieged
theodor
bishopric
brenda
auf
poe
##tom
anyway
boroughs
##hee
1300
##sti
moisture
tbilisi
counseling
tornadoes
federico
helm
risen
graphical
guillaume
carla
responding
shame
##schen
gypsy
graphs
taekwondo
##rup
courtesy
##ssel
##isch
astronomers
engraved
optimization
awakening
188
proves
yves
clone
comte
illegally
liturgical
thanksgiving
magician
##shore
barony
diffusion
##bourg
##mble
connie
automobiles
rubin
compressed
gangs
monterey
muse
superstar
##ection
301
##enbach
##н
buyers
herd
##fies
cents
##yes
commitments
padma
touching
dracula
##chal
##screen
needle
grandparents
payload
supplying
##jack
340
assurance
biotechnology
nouns
fulham
##ulates
upgrades
##bler
assured
chronological
ramsay
##hong
courier
landowner
shea
##icular
intentionally
trailing
##icated
ransom
##pine
christi
calculus
jackets
nh
mckenzie
canoeists
equatorial
##ored
collaborator
##ego
forster
stationary
##sef
murals
1800s
##itation
##rang
##static
##cratic
overturned
reinstated
##cles
##fic
cigarette
imaginary
obliged
graffiti
tops
glasses
anthropologist
minors
##ades
ethan
katrina
##pping
##sol
oversee
akron
ambition
backwards
loyola
owls
incumbents
##grass
greyhound
##lev
naomi
pile
##riam
##rator
##ught
freeze
##ods
circulated
julien
rainforest
feng
oro
hewitt
moderately
bahia
sounding
##jn
convenient
##oso
orion
convincing
purchases
##ndra
stronghold
saloon
##por
pilgrims
plato
##put
buttons
secondly
nautical
penned
benedictine
contamination
overhaul
merlin
miner
chasing
kelley
##mail
bois
sg
##bill
##ided
mca
masked
##iot
##mur
multinational
economies
autism
countdown
##ear
##nese
clarkson
bela
vengeance
approve
dots
undrafted
rid
sulfur
venom
balkans
freud
spokane
prospective
##morphism
tome
ames
distributions
mono
rhythms
committing
melanie
sai
barnett
##ungen
hitchcock
hearings
waltz
##rella
mounting
jul
##bos
grenade
1757
gupta
curious
shoulders
willard
instability
nairobi
420
ville
straw
##glass
##jak
mythological
booklet
filters
qin
##cao
##uba
masks
descending
##ished
1400
emerald
baptism
zion
213
##heimer
martins
##bone
apology
##made
armistice
hormone
##hrer
glucose
breeders
cart
rufus
173
##weed
businessmen
lama
claudio
inverse
deed
370
float
coefficient
weighted
promo
warnings
louisa
1756
cabaret
dependence
queer
consulted
philipp
##wl
interventions
rockies
plea
santana
##sfield
connector
guthrie
humour
cass
declares
jp
vivian
##ptive
koppen
psychiatrist
chloride
##cape
lips
pontifical
chesapeake
maccabi
predator
##orted
##rri
admissions
immense
sardinia
1689
hazel
shaun
##cd
slated
##abe
##page
##pped
prosecutors
##kari
shareholder
sperm
##rates
221
installment
desirable
yunnan
bartlett
linguist
serb
montevideo
##nova
##sure
##nius
1648
parallels
viva
##ass
assistants
immortal
kris
tandem
clergyman
currie
##dp
luton
##bow
bernhard
browning
iec
impaired
masterpiece
domination
plaster
##rial
invaders
hardcover
whistle
blunt
abdomen
entertainer
bite
outlaw
bisexual
##uga
209
surfaced
##cars
duffy
suggestions
ing
optics
transports
##inal
protagonists
fond
livery
1710
slang
af
##org
handsome
##ead
vie
aperture
##torium
costello
avalanche
cbe
emanuel
industrialist
magna
av
35th
strangers
drained
191
oasis
selecting
mysore
marketplace
##minate
1830s
stefano
##uce
##wice
fanny
magnum
impacted
mutiny
orphan
az
cinematic
dominique
##stadt
mankind
authorised
disciple
gerhard
raises
wingers
isa
365
##ffen
scheduling
walters
commemorated
290
debbie
##tya
vectors
##folia
##sic
medicinal
xiao
senses
bizarre
downloaded
##urne
##kow
ditch
owed
taxonomic
harrington
mistaken
##lating
scream
ssr
entrepreneurship
suns
crimea
sermon
incidence
patton
sherlock
prep
russ
##22
##ores
mister
peacock
##07
##aca
ventura
##shaw
ginger
333
pumps
forthcoming
runoff
buffy
bestowed
larsen
##iti
32nd
pledge
searches
gdansk
baronetage
khmer
##64
disturbance
grief
slater
pray
33rd
attribute
denote
##rians
bogota
187
exercised
migrant
##uration
lean
gardiner
isis
lets
usb
scenarios
torpedoes
bullying
##xide
libre
strokes
derive
##ilo
aesthetics
nanjing
galloway
##idal
objected
yellowish
##uria
bundle
rf
##aq
registers
coincided
invitational
##tham
camille
380
rosemary
executions
marguerite
hume
1727
eduard
207
goodwin
monitors
sellers
attracts
correction
##bid
##ancy
184
##eiro
glover
revive
scan
kazan
mariana
initiation
marries
serpent
tor
remastered
biennial
spouse
cyclones
##lta
influx
flourished
##ppe
rowland
thieves
xx
lola
##lmer
thessaloniki
204
colorful
weighing
brackets
lever
snout
tsunami
transporting
henrik
crab
vertices
favourable
carriages
lobbying
landfall
##keeping
jumps
furnace
malaria
resisted
##ulla
fatalities
bey
ndp
sabah
gaps
##hit
kabul
prototypes
tajikistan
francais
##his
olympiad
interfaces
##ako
enclosure
##itch
##zza
convinces
hayward
pam
marne
modernization
vargas
webber
##vert
nana
##rky
minas
##mme
##cap
garbage
archbishops
bafta
breuning
hk
hairy
tyson
##ivating
byu
##lid
landowners
ezra
indy
sinai
exhausted
preferences
##lent
##uity
collaborators
bengals
##rini
snooker
##mani
arithmetic
geschichte
advisors
wrecked
cavity
##rove
193
prevalence
kemp
moines
##nces
famously
mourning
##bn
juno
rooted
##df
tacoma
##pura
endless
ascension
keyboardist
zoology
stephan
##nut
gem
tremendous
philanthropy
##pad
tails
##word
1a
instituto
umpire
hutton
blanco
##break
##uded
boise
##wai
214
34th
symmetric
lighthouses
emilia
hygiene
lovely
wiki
bei
elongated
miriam
watford
##08
headline
viet
##ict
punished
##rgan
cylindrical
impose
disastrous
##ncies
arrange
ninety
burgundy
decca
##ove
sinatra
196
##chev
ryder
buyer
conversely
swami
guillermo
##laus
178
hyun
lawsuits
##avi
##ml
brigham
jeremiah
boca
##linger
fatty
motive
transylvania
##glia
campo
##ingham
silesia
tile
espionage
refurbished
hungry
##any
emigration
tanker
##position
##zak
elton
##truct
lindsey
faa
holloway
preaching
fitzroy
preserves
ritchie
invites
##iable
transforming
dunes
elk
ruben
middlesbrough
vertex
remembrance
##ige
yin
locke
##bot
1747
179
gutierrez
homicide
katz
limbs
protectorate
310
ballistic
##gging
440
commemoration
internationale
sins
##tr
conceded
##mith
rosenberg
##ła
fortunes
hodges
oricon
##rter
telangana
melting
pensions
tablets
##esa
rejects
##vine
khorasan
novella
mausoleum
tires
archaic
augmented
claus
arched
simpler
huskies
cindy
entrusted
##tick
foundry
langley
intensified
##lbert
axel
##eb
deliberate
guess
spawned
##otic
ching
juventus
bravery
skyscraper
##ln
ecosystems
##kko
acronym
memorandum
revolves
accountant
coil
oxidation
baylor
patel
roche
unbeaten
niche
objections
deposition
##lace
schuster
cummings
##uet
audrey
peninsular
requesting
header
apostles
sawyer
dart
rt
definite
gum
michaels
##oil
bombed
189
##lung
##sr
exploited
hereford
tripoli
dewey
##pods
textbooks
mapped
xml
netball
##dden
##film
##ym
hellenic
handles
216
##ales
ao
penang
##iac
panchayat
jumper
physiological
anchorage
parental
##pool
grains
foil
occupations
sorry
quota
romney
##thes
bald
flanked
yates
quantitative
##jun
kyrgyzstan
rhone
##rot
electrified
baronets
carleton
exemption
pest
##bha
deco
envoy
madeleine
walnut
zach
calais
sharpe
##lander
excerpt
##uaries
bala
lending
barnard
indicators
justify
robotics
nan
dickens
propagation
gangster
##cta
bratislava
224
dull
##wana
biomedical
alumnus
honneur
marianne
stepping
attic
##sham
contention
##lean
exceptionally
broadband
weaving
sylvester
bankers
chloe
pena
##irus
scrap
##post
captures
upwards
stripe
##03
##boarding
##oslav
dickson
prejudice
alliances
ui
##rdy
1661
napier
a2
raped
wishing
forged
neutron
consistency
##escu
atkins
bernardo
lausanne
concealed
##72
lange
sicilian
lund
##vet
meaningful
##lateral
staple
##ience
rodeo
303
pounder
ik
airbus
##shed
petals
##lini
##iche
recipes
1730
connectivity
disguise
inventors
lr
galaxies
titus
woodstock
chattanooga
174
mccain
42nd
wizards
aleppo
ensembles
ridden
intercity
rb
ribs
topography
##eville
##fighter
chun
##nah
##ically
##oat
bluegrass
denoted
peck
sediment
simulcast
##gill
bathurst
980
redemption
##guard
pba
##rano
croydon
paradox
##chrome
197
tuscany
##bers
199
##phus
react
fuscous
monsoon
pants
jakob
haul
heroine
int
##rte
##bana
##rong
noteworthy
bunch
offenders
relativity
averages
problematic
1741
airlift
correctional
wires
ras
ryu
kahn
archival
##sea
stylized
##yte
sufi
##wang
recession
shades
trenton
partisans
pricing
matthias
mushroom
palaces
265
intercollegiate
bharatiya
sire
beckett
##vac
grouping
cassidy
voluntarily
dev
##ility
anthologies
transformers
##ctive
##hue
flux
##hum
clue
wilder
squirrel
guido
guadalajara
tito
##gara
journeys
freiburg
60th
lai
sha
feminists
forecast
interpreter
##lysis
lviv
sanford
manifold
arenas
grounded
frigates
satan
halo
raion
##oise
mellon
humble
chesterfield
##nage
##ieri
regeneration
richest
logs
convened
mediated
bolivar
inappropriate
relieve
vineyard
crowded
aziz
estadio
affection
##pies
480
formulation
nokia
assumptions
ala
disguised
differentiation
##т
##pio
186
drains
churchyard
##ental
spartak
barangay
caring
potatoes
southbound
exploit
phyllis
shotgun
##ards
ml
admirals
194
miracles
ping
prophecy
texans
mergers
seneca
##gina
##hammer
eccentric
##ece
231
gilles
ceded
stimulus
clemson
pitches
totals
232
grateful
##mat
1720
sniper
##uber
brasileiro
mead
smell
psychic
cis
entrances
##chu
##cale
prosperous
co2
nino
sabbath
wooded
levin
racers
orchids
adventist
##oom
scandinavia
suppress
jaguars
325
dora
accordion
hobby
fumble
hartley
airfields
yielded
retaliation
swindon
masonic
disclosure
susceptible
lal
##lit
erupted
nt
##rek
##zam
joker
longitudinal
##sho
referees
##llation
separates
##rone
undertaking
insists
##lani
quiz
trophies
researched
940
sentinel
tiffany
##cek
##sun
mv
neon
biennale
doi
richter
bathroom
sediments
##gau
##market
##tile
dare
addison
capitalist
##fair
##lous
cebu
probation
##bt
##elo
freezing
halftime
congregational
dyer
walled
parramatta
sergey
carolyn
unemployed
##sting
recipe
blaze
citrus
euros
programmer
##rma
cambodian
embraced
217
dion
protector
retention
##tology
##dit
mystical
apostle
attendees
protects
gillespie
towed
yesterday
##llah
maud
audi
hears
tobias
218
mara
wwii
refinery
jared
neuroscience
doo
ir
torre
chant
racehorses
gi
lively
##chang
quran
gabon
reggie
rana
spirituality
4000
##mura
##atz
##nh
morrow
nero
packs
render
bangor
##jong
nuevo
facilitated
kiel
tanner
landslide
zheng
##ι
det
coke
stiff
##ulin
cigarettes
baroness
spice
pamphlet
viaduct
780
antiquities
contender
edouard
##lr
akbar
lehigh
##dridge
toe
spray
streetcar
fuji
chimney
shipwrecks
##log
219
223
bordering
spanned
##genesis
820
scripture
##ingly
seizure
##cl
##riz
proliferation
billie
sonia
##amo
##kovsky
clint
convey
dharma
analogous
clade
commemorating
eager
energetic
##br
dye
##hini
establishes
spontaneous
##horpe
fracture
##lium
pont
raided
creole
swallow
##itating
gothenburg
nasal
##adia
##cats
##cco
commentaries
malmo
caravan
fullback
edmond
northbound
##rle
##drum
artworks
deserted
##nka
##tica
initiate
liturgy
##aneous
saxe
198
unconstitutional
gravitational
##rwood
gwen
inflammatory
parry
glamorgan
##aged
ying
kamen
proceeding
##rill
approximation
huron
bahadur
##inton
mal
prefect
negatively
verdi
zionist
jozef
dispatch
harmonic
steiner
marta
biochemistry
nike
sundance
##dler
36th
depressed
fuels
navarre
bolivian
salford
##buch
##tm
betrayed
javelin
tau
harald
medicines
siberian
calculate
crying
fins
frontal
##nium
fishes
elmer
populous
##vor
casualty
foothills
marlborough
antrim
compose
knighted
priorities
##hone
tao
semitic
aleksandr
bertrand
##scher
##itic
##llon
griffiths
##xx
fulfilled
heels
policing
abbreviation
mecca
popularized
postmaster
##js
clad
generates
ugandan
##ances
##nburg
phelps
desires
morley
semantic
lille
advocating
##ии
injuring
##lining
rowe
matilda
rowan
##db
##kley
##yed
coordinating
dolly
burnley
nikki
##ago
weightlifters
##udi
anhalt
damian
commodity
culinary
fiona
##sb
periodicals
##aha
cylinders
illustrate
garry
sociologist
bel
255
bbffbb
wentworth
minimize
chalk
deception
maxim
1690
kyiv
##breaker
narratives
simplicity
heavenly
737
##jana
superseded
disagreement
fabricius
incorrectly
legged
beyonce
rendition
waterfalls
densely
fang
##using
splits
fairs
tow
arises
knot
##ctus
sans
cavaliers
improvised
##lett
##zow
usgs
##sas
earls
retailer
steward
ventilation
coupling
norwood
amounted
##sher
##hila
italianate
sumo
yerevan
monitored
iphone
##sam
agreeing
sax
bari
westwood
##alia
##ganj
insights
##р
palestinians
##cope
##rks
boilers
stables
##oman
##estan
##onte
##ows
projecting
wasp
##zaki
fireworks
proton
goaltender
theo
##bol
##amp
##ately
turkic
##train
##gled
marshes
adjutant
arturo
vows
##oft
witches
gottingen
##pack
symbolism
uhf
comune
danielle
1751
roe
royalist
eileen
##lston
babu
cottages
##fighting
60s
2022
##inating
millionaire
snap
archdeacon
masovian
##active
emphasize
rotor
tuned
attain
##llin
##sko
terence
##gr
busiest
##raz
delicate
melvin
##grove
brest
##gil
##wire
##jas
painful
vance
bonaparte
asserts
bartholomew
gail
iberian
roadway
akin
##pas
##phila
##sford
accomplish
conserved
virgil
doe
stamford
luzon
kin
div
##hani
translate
gemini
versa
##quez
cairns
whitman
pilgrim
##ange
shortlisted
collaborating
##bara
##urable
acknowledge
ensign
abnormal
abuses
##iating
instagram
recognise
##hol
##ия
mcgraw
manners
skies
braun
staten
highlanders
coats
roc
dhabi
sequels
um
aubrey
1688
catering
rusty
barre
coma
amiga
ava
scar
ty
cantonese
saturdays
vascular
remarried
corrections
fender
invalid
mounts
##lts
alzheimer
convictions
theorist
##yna
##aton
##vos
##erence
importantly
abused
bids
subgroup
##tet
discogs
kilda
coasts
insurgents
respects
compelled
##nge
##rts
voyages
evenings
##mill
##git
orbits
convict
##aman
paradigm
printers
##tage
adjunct
baird
cosmos
wired
##icide
pistols
##saurus
hove
coincide
wonderland
textual
##usz
mari
gina
paramilitary
honoring
lynx
samson
##ido
lauderdale
wetland
fig
38th
kerman
sensing
severity
benoit
ale
techno
chords
##oshi
prevailing
farmhouse
##eme
traps
literal
bose
tna
wexford
##oja
edged
imposing
tokugawa
washing
##kot
##sier
avid
endowed
proponents
phylogenetic
seaside
##lem
sewage
contaminated
pod
storytelling
examiner
##oin
bis
cheyenne
periodically
detector
possessing
sharif
kb
leak
suppliers
wehrmacht
maldives
##oran
consuming
engagements
##rave
##erry
pleistocene
bk
1746
prescott
##ault
kobe
jiang
##ums
investing
repertory
crowley
prima
1644
264
manfred
handel
##rgy
##nity
##wala
harcourt
slowed
amc
differed
impulse
pertaining
reg
veracruz
dodd
massey
##ossa
bournemouth
midi
drone
##hya
sampled
##itate
congestion
grassland
cortes
romani
shoreline
banning
replaces
##km
repealed
inconsistent
forums
genetically
paraguayan
rosen
compiler
tirana
chemists
tory
dangers
interiors
fargo
salvage
unpopular
mainline
stout
##lewood
redirect
auditor
thatcher
repeal
##sei
##iles
auspices
##gong
##fera
assessments
##iella
putin
recommend
##yers
##vina
ecumenical
##ices
1748
benfica
accumulation
haynes
1642
doubts
checked
heiress
##udes
##oss
inspire
remnant
atoll
liberated
encouragement
chico
craven
elector
commissioning
barnsley
derrick
##aster
##mun
##meter
deprived
##ggy
mythical
##lves
togo
shandong
chichester
##rant
interfere
bwv
marches
ely
searched
distributing
macquarie
delle
heron
acacia
##hips
shrines
vampires
weekdays
kc
guernsey
overseeing
analyze
battleships
305
##lice
##tov
jimenez
breakup
nfc
spotlight
##rite
baptized
goats
offseason
bandwidth
illuminated
##rland
##ishment
nouveau
slovene
discus
##quisite
helene
wavelength
##omi
##tern
directional
##imus
erwin
narration
bison
zeus
feather
##tility
adjustment
animator
kite
celebrates
envelope
procurement
propose
zhejiang
##gang
computation
warrington
##gre
asphalt
urine
checking
1752
unfair
diverted
expenditure
reelected
gesture
ist
kurdistan
strawberry
trusts
##tosis
clutch
graf
##zd
federally
smuggling
marjorie
negotiating
compatibility
1722
postage
##yce
pulmonary
##к
inflicted
fremont
trash
1620
hawthorn
maclean
siena
##eres
purity
toxicity
strains
##achi
ut
revolutionaries
1680
##ioned
##opus
weaker
680
princely
##map
1714
neutrality
wes
1685
johor
sabre
##pts
hind
rewards
limb
compelling
tam
tattoo
1749
sweeney
reefs
asteroids
bai
##erland
bloomberg
lbs
canons
glorious
meiji
schooner
franks
upward
##ffa
discarded
reinforce
benefited
competent
foreword
##under
fist
reservations
nagoya
##adt
##uche
chrome
intends
miocene
instructors
boyer
ellington
accusing
organising
violating
culturally
giacomo
repository
##gold
##runner
ballard
fibre
##chet
##sari
fis
hazards
##wd
227
##nea
suarez
keynes
rory
##lities
##rao
compartment
legislator
goldsmith
mortimer
mata
traveller
##ulton
elbow
charming
runaway
##ometer
featherweight
##jee
henley
dirk
rosie
rehearsal
turnover
interpret
thistle
turkmenistan
guantanamo
routed
sudanese
##sby
complementary
freddy
sbs
touches
##rita
authorization
1100
olson
maharaja
##vir
##auer
beverage
cary
##poulos
caliph
pereira
overland
seminal
morale
youths
##thorpe
landlord
##pia
##ddy
410
siemens
marquette
thorpe
infringement
wolff
fivb
rhys
##hardt
245
1734
romano
hail
cochrane
##nikov
centimeters
ua
##otti
bloomington
metaphor
pornographic
dmitry
guiana
##lena
##uman
gettysburg
zeller
aviator
##bate
enrico
fabian
##aming
##dot
immaculate
1713
macon
requiem
##ncia
pe
somme
waterways
substitution
cartel
dortmund
sexy
palais
##oop
amour
##usen
disappear
yeshiva
yvonne
spruce
thorough
##rics
algiers
##rika
enthusiasts
gr
##ays
##posed
fielded
blitz
jing
mariano
##isms
armagh
camel
reluctantly
ro
##xing
perpendicular
encore
prologue
ecuadorian
860
destined
sliding
##iensis
salaries
vila
rip
transcript
##sand
mckinley
##anu
##eous
brownish
cathy
query
##verse
##aja
##utus
1701
##deh
##lva
ignacio
##marine
quay
hamas
urgent
##mons
gamble
palatine
fukuoka
pumping
murdoch
repression
##iance
keel
induce
pardon
##bas
eng
motown
puzzles
##ush
milford
porcelain
renee
##zek
diagonal
lombardy
independents
##rro
scattering
humidity
kern
neptune
submissions
consume
##tment
explanations
formulated
fluent
jae
##rds
##uding
subsp
munitions
##−
distinguishing
regis
reasonably
##xed
gunn
prakash
##pate
periodical
supplemented
invade
##stis
cartridges
clever
notified
precedent
fashioned
##cup
##gp
warns
amalgamation
inputs
kangaroo
nepalese
enjoying
neumann
##hler
null
schiffermuller
serge
##dai
1702
lau
##gley
hides
rafvr
inverness
compiling
cyrillic
govt
ska
destroys
sweeping
kinase
replication
nail
pivotal
##cum
rees
lakshmi
##dling
##vd
fancy
##used
kinetic
##llan
butt
revolver
threads
##35
celtics
illustrators
mammal
##mina
shortest
##omy
nikola
##schaft
##zal
knives
faults
orphanage
slade
petersen
jarvis
knots
detectives
##aco
fatigue
relocate
##pose
encompassing
inhibitors
negotiation
nut
hats
##child
hostages
relying
710
bandits
knesset
apprenticeship
enhancing
gators
##ended
##yoshi
serena
suez
explosions
munro
zeppelin
massacres
efficacy
aviators
manly
moe
belts
guerre
synchronized
suites
unavailable
newscast
disruption
townland
##lter
manson
underwood
sorts
veto
edible
##tain
39th
roach
cullen
connolly
tristan
evolve
harrisburg
kicker
olds
baths
euroleague
##cano
##eit
transmissions
intending
ib
##fusion
gotham
untitled
##lytic
awarding
grimsby
insurgency
travellers
lectured
dino
hopper
##logie
##yya
maize
med
bismarck
implicated
liechtenstein
linden
monograph
##dre
buster
confessed
suriname
kamal
metabolic
nutrients
##tura
doubling
##aring
musa
futebol
##eman
##puram
chevalier
##bush
wolverines
ogden
##vn
continuum
rashid
analogue
##hdi
divides
scaled
shrubs
imminent
meg
forks
slots
##storm
surfing
modify
weigh
##dant
jailed
hendrix
maze
##working
dietrich
lex
##ject
inclined
gentry
##arium
prefers
everest
##than
sermons
spire
collaborate
justification
listener
panorama
tt
##ь
wherever
##dro
##dun
deteriorated
emir
intercept
paste
##mento
dungeons
endorsement
torino
brethren
hornets
##np
efficiently
traverse
abruptly
characterization
emphasizes
sacrifices
##eze
fragile
##giri
##tite
brentford
robotic
unitary
##lim
mates
ambiguous
uninhabited
##kit
##mobile
reese
##note
##rler
##bbs
navajo
##sf
linguists
peach
##45
constructions
mn
expecting
munchen
coated
inspiring
##nee
guzman
soto
##grapher
controllers
balcony
calhoun
kaplan
vertically
##eding
haas
incentives
##04
##inen
comets
##plant
mcdonnell
233
awaiting
graeme
inevitable
##bri
constabulary
##lom
confidential
predictions
jurgen
matrices
rye
supervisors
basins
criticizing
##emi
##oney
patty
jewellery
adulthood
heroin
228
goddard
mabel
navigator
americana
bakery
boogie
wilkins
unwilling
gladstone
inverted
smackdown
fascism
oils
pets
##khan
##rani
1743
##right
238
##xes
kildare
warn
chick
kidd
aristocratic
invasions
zaragoza
mei
impressions
spectator
shetland
##piration
asiatic
collided
concessions
chased
relevance
cleopatra
rolf
drowning
geographically
macintosh
regents
carver
rani
bsc
sal
styling
460
cory
nw
234
cerro
frontman
antigua
wedge
bowled
truce
peculiar
1630
1744
compensate
1742
realization
##uen
##cturing
##lad
ursula
##gny
crambidae
mercenaries
##bina
bounty
##tium
##hang
chao
concordia
regret
joints
laughing
swap
affirmed
##cking
##neck
##patient
salesman
##nson
montane
brewster
jumpers
rumours
penetration
scrutiny
ulysses
##ardo
cicero
##hay
appendix
neglect
broker
johnstone
cristina
urbana
oliveira
dice
babe
harrow
medici
jordanian
carthage
motives
orphans
filmmaking
##pathy
470
polly
##yuki
fixing
hunted
misconduct
##kra
gloves
##guchi
betrayal
turk
##ckey
##hetic
##iinae
goethe
etudes
monde
bidding
##lain
owning
distributors
downhill
easton
junta
pickup
##kr
mixes
signalling
superiority
tug
abrams
calder
responds
schumacher
volvo
##wide
khalid
readiness
predominant
##emon
##oku
##ump
petra
##ucible
##eric
augsburg
sexes
yun
bedfordshire
subjective
chinatown
trait
amidst
indicted
usda
counselor
sourced
qui
cancel
schultz
m1
otter
##lb
auditions
lego
radcliffe
confessions
whaling
hedge
pentagon
natasha
underside
##phora
##kia
assaulted
maynard
staples
philanthropists
uploaded
##stream
comparatively
##esses
302
mussolini
ambitions
##tler
bilbao
herring
archers
wonders
##church
judah
craters
##oki
nesting
usher
articulated
ernesto
electrification
285
vineyards
##ater
heel
pieter
cheryl
delight
mistakenly
coefficients
drafting
##bella
robson
1603
dynamite
pixel
##plied
1735
##erin
comedic
lombard
oblique
oyster
##lessness
envisioned
##tini
##sell
royale
##roid
presses
##iy
##isse
dvds
sinister
corrected
1625
reformer
emotionally
mer
hua
corona
##anco
##illy
prelate
##hell
accessibility
alta
##ones
37th
exploits
paleontology
##eke
dyke
fishery
jewels
##bir
galactic
practised
steamship
##pathic
anglia
241
blowing
jiangsu
champaign
lillian
rods
##dington
##rka
gibbons
dictator
domenico
brace
seldom
##ographer
adjust
systemic
wandering
clues
##corn
##rily
##vus
auschwitz
evolving
sim
helpful
raaf
##nall
chili
feeder
pulls
quietly
positioning
1708
duff
whiskey
##zuka
lithium
realms
aren
terminate
vp
caf
expectation
kathryn
emerges
nails
##ssy
##rsk
repeating
trenches
##rage
donegal
herrera
premio
alfa
judging
annapolis
seismic
invading
scroll
verified
discographies
nueva
uppsala
##hil
stereotypes
stupid
##pressive
bearer
sabotage
##eem
witchcraft
##kla
earle
microwave
reactors
transitions
##nr
##loading
mutually
cappella
riaa
perpetual
ineffective
##scopic
subsidies
wnba
1643
consultants
dunbar
psi
frustration
rus
regulating
pretoria
truss
inflammation
tumors
helens
medications
##pl
rigorous
transmit
##camp
synthesizers
conglomerate
##ect
appealing
##pod
transforms
##icum
##riya
##tled
##tore
emancipation
nico
akira
succeeds
##aea
bourne
renew
depart
##oot
telenovela
bikes
trance
ratios
##iform
avatar
##zia
muir
trainers
##tf
insert
outdoors
oppression
prostitute
##cera
##rdo
lucknow
striped
highlighting
jericho
##fia
lyndon
meps
pisa
pines
##cytes
##tance
duran
toro
##bery
242
attackers
secession
staffed
serra
invertebrates
inline
obstacle
sl
specify
norma
##dm
##yal
genealogical
##ication
##apa
plagued
pfc
regulator
metz
##centric
##anian
catchment
disrupted
guerra
911
woodrow
##lite
weed
##tius
banquet
graded
##liche
##ов
transformations
agrarian
opium
whitehead
astronauts
eucalyptus
intervene
meritorious
##cycle
##utation
cu
disagreed
larson
pennant
ia
traumatic
##000
lansing
randomly
spaniards
blew
distortion
capacities
anal
sachs
cows
##strasse
cinderella
affiliations
##rsa
trojans
barge
dialogues
obsessed
1739
prepares
soda
295
bicycles
ptolemy
tortricidae
226
mp3
##eves
bashkortostan
kilometre
maureen
nair
overlapping
fx
##unge
unmanned
2a
dupont
fern
reprised
butte
gilmore
mcc
sampson
wharton
headlines
harvesting
procedural
sickness
yeast
##nl
##wad
clinched
carlson
dungeon
silla
sui
##sso
doherty
schedules
topographic
arcadia
groom
##hiko
mccormick
announcers
hen
wolverine
##orne
dow
ffcccc
crust
##tera
##xon
carving
syriac
°f
burr
sas
##zh
##ssing
falkland
superfamily
##emia
chiba
ich
oboe
conflicting
##anne
cheek
eclectic
ensued
attends
cher
milne
##cp
##fight
consoles
251
groundwater
contra
credentials
fleetwood
microphone
prevailed
##rew
adele
fore
freak
mcgee
downloads
##eber
##tino
beaufort
scarce
fugitive
##mare
ghent
tata
wrocław
##olin
alpes
monty
elgin
projections
##jord
empowerment
##ubs
sprinters
##uff
ebert
##gum
examines
armand
crewe
lookout
naive
ingram
pins
kan
spines
moldovan
anchors
knocking
pere
abdominal
uniquely
##dham
##grant
prop
##ckle
bb
differentiate
##oco
totaling
marius
lenny
asleep
mindanao
401
fused
##lou
progressively
casablanca
##eurs
shenzhen
departement
magistrates
za
beverages
##weiler
provoked
sap
##aque
anatolia
safer
laude
encryption
authenticity
henan
##ester
believers
##jian
##unded
kickoff
southernmost
musique
229
laval
conspicuous
suicides
##acies
gundam
##ieu
ngc
##cz
shaping
##ains
tex
thorn
##vat
262
originate
scandals
barrio
digging
routinely
tanaka
titanic
##bola
fueled
mitochondrial
##tial
csi
munoz
argyll
firefighters
##aris
bounds
gustavo
configurations
introductions
##spor
cardiovascular
stabbed
##worm
amin
beech
selangor
galileo
decomposition
caliphate
##naut
dependency
weren
spence
donaldson
1725
attendant
deux
hilary
##phobic
dane
##hwa
decent
okrug
saharan
hoffmann
sails
comedies
rum
trojan
hoc
levant
guarded
hostility
rsssf
##xy
gut
##uary
fines
nomadic
stricken
wallis
guo
243
aerodrome
threaten
##owing
grasses
##ы
pubs
excerpts
mcbride
northernmost
rig
transplant
##got
saskatoon
311
blows
##23
boring
deportation
fungal
##tang
wrist
scripted
yusuf
eurobasket
migratory
marlins
telenovelas
prostitutes
##vain
rugged
dreaming
informally
republished
##ipe
ate
chefs
tendencies
μm
##loaded
##phy
##odon
ought
xinjiang
##cellular
idols
rbis
##kker
rpg
##aby
aspen
hilda
ritter
##cino
weddings
neighbour
novo
##uy
##vati
poultry
##kou
gardening
loyalist
cooler
cheung
humanist
barrage
filmfare
lining
##ntial
konstantin
utilizes
mori
magdalena
shen
##music
descriptive
hunan
experimentation
backdrop
johanna
##anum
##oum
katy
##iner
screaming
##slow
##words
donkey
durban
invite
researching
##uis
u2
##ilia
##ailed
conjecture
discount
247
##iary
£2
##arm
professorship
##kki
##ulum
1670
ineligible
thy
##sable
mueller
axes
empires
lightly
arroyo
burrows
heal
mart
polished
scenery
psalm
mounds
severed
shelton
abusive
coptic
grady
##aur
##vah
disclosed
##rized
##iferous
##meyer
asp
vapor
rochdale
##chemist
gaius
natalia
rebirth
308
fisherman
wr
analytic
##curity
angered
schubert
wee
lambda
defect
startup
trolley
elijah
##unk
navarro
parasitic
aggregator
occupants
kaufman
horseshoe
ironically
spartan
##nig
inuit
newmarket
lineman
ns
als
unicode
avenues
triassic
retro
1649
##gl
##kt
jens
olaf
morphological
##feng
novelty
##kala
ensures
guadalupe
zoological
bellator
lennox
nouvelle
curb
sumner
shrimp
##games
##ici
##emann
313
430
mclaughlin
engraver
##ogan
essayist
junctions
equals
##pd
frankenstein
1610
oaxaca
##arts
##iens
##ivist
prosecuted
bianca
1679
sasha
##holes
##pon
ngos
1641
absorb
deploy
supremacy
wai
exposing
yao
hotspur
clocks
##dry
237
altitudes
biologists
speculative
##noid
##shima
viewpoint
##bio
orthodoxy
raceway
1723
fronts
540
aeronautical
##iver
downward
##aker
edna
quartz
bu
gossip
friars
gambia
parrot
analyzing
rollins
benito
bray
pak
hidalgo
##oes
phased
commodities
clippers
nicky
selsoviet
239
charters
dagger
##zai
tyre
imply
##vka
cypress
manually
nehru
rests
dragged
halves
##bilis
520
suppose
##wife
synonyms
##ffle
floral
kat
archeological
nominate
westchester
disliked
fordham
picasso
ren
siam
globalization
kv
cooperate
gujarati
##iled
##yse
##ishing
##kat
1724
##lance
##enstein
##nnie
##osaurus
chaplin
martian
ayrshire
ol
proponent
mor
remedy
spectroscopy
##metry
304
palma
slab
##iol
fits
##marked
bodyguard
functioned
##cot
hanoi
stimulation
##adan
##minster
locker
sorted
maha
1662
1645
designations
muscular
##gm
coinage
valentin
documenting
mani
octagonal
pol
##oia
doubleday
keystone
monterrey
##etto
##rable
barley
##rce
##pson
252
traveler
damien
gems
##dim
##dora
##diment
dowager
##kam
guineas
professions
##bh
254
jang
stockport
##oche
lucha
1737
41st
plaintiff
terre
kepler
freedoms
haley
##lberg
markus
cantata
leaning
##ressed
noticeable
tracts
##tman
parasite
fairbanks
shepard
temperance
mustang
alsace
pistons
##dah
##nac
cavendish
dolores
restrict
##meo
treats
##while
sb
scientology
verification
voyager
##ango
##rford
chong
liberalism
worry
botanists
evangelist
hooks
287
closes
cumulative
summaries
##hae
integrating
obsession
##ilde
cruelty
##fr
stainless
##haya
parted
##tations
sighted
iihf
lizards
neurological
sentencing
parana
policemen
vivid
##dev
slayer
##ulatus
1621
gazetteer
chapels
sahib
instructional
sociological
maxi
proportions
tightly
bayer
organizes
parasites
appellate
gearbox
ewing
thou
##tropical
crafted
wasps
hourly
skipper
##eyer
zombies
expenditures
herbs
judd
karma
315
spill
fortification
ives
##cis
390
baha
thom
contracting
palo
louie
tal
lesions
##lang
leary
musically
spheres
tariff
mold
seychelles
amplitude
tides
appropriations
novak
##ross
##plication
##sund
gladys
rallies
312
cathedrals
claremont
dl
vent
##75
implementations
mannheim
mcgrath
overlooked
psycho
scranton
adriatic
corbett
deciduous
hahn
mirage
eastman
##31
##nged
blacksmith
revisited
shower
groves
mbe
domesday
##icola
802
bourgeois
##gui
govern
technicians
battling
optic
##arth
##orno
padua
##icia
##amine
##hab
1732
khyber
lilly
##aine
esteem
##issa
binds
hillside
luciano
thematic
goalscorers
rhyme
##ggins
##bek
3a
mandir
booked
alvaro
##arty
reigned
blogs
rust
barclay
proprietor
vanuatu
creations
rack
1550
pawn
parcel
henrietta
reactive
marylebone
midfield
manifest
##ryl
amar
1718
wilcox
confirming
yeomanry
harness
##28
##eki
musik
zeta
##million
##tories
localized
sheer
##bellum
##ifolia
##corp
##onate
hamid
lowering
950
eine
eritrea
gareth
waller
##dhar
dresses
res
evidenced
manufactures
##ikon
adolescent
##heart
downloadable
inhabit
wrexham
dietary
universally
coating
281
tianjin
banda
moniker
fir
sirius
bmg
draper
##wold
flashback
quo
sour
outward
pollen
liable
##alle
legitimacy
darius
321
showtime
##zman
incentive
##raus
1728
decker
mina
idf
##brand
columbian
##elled
hagen
1733
republics
##cala
sequencing
##fires
##vant
hybrids
spd
##wat
assert
saratoga
berwick
tae
236
experimented
statehood
supervising
til
woven
filly
lungs
volta
45th
msc
aisle
##trum
raoul
downing
primaries
##news
##awan
warmer
naturalized
reeve
253
##uate
shortages
uneven
tha
scanning
fay
io
molluscs
##chio
##zano
##cule
betting
discretion
cadillac
##bino
vulnerability
bucket
tensor
barnet
sudbury
granville
superheroes
pharaoh
gallantry
nantes
interacting
fusiliers
lifts
##uve
reigns
societal
##nington
sums
helmut
ourselves
outpost
harlan
paisley
##arns
konrad
##ngen
sesame
maneuver
ridley
##lge
##tou
##oza
kaye
cabinets
danced
packard
sheltered
##nial
mollusca
##pedia
horne
##agne
##vite
framing
##mori
##uts
internationals
interrogation
surrounds
tnt
##dman
anticipation
caucasian
aquino
overseen
##raphy
introductory
manipulate
wiener
##asco
##rba
faust
##bah
alleging
isabelle
southend
##ever
blizzard
essendon
lend
specialising
##hesive
christensen
hyundai
nme
piazza
clerical
mandal
launcher
genie
parentheses
##33
286
macleod
preached
shapiro
topping
haydn
273
mil
resembled
##mps
convoys
625
hawker
tian
premature
ignore
sato
##iant
##hian
##oud
syllables
koln
##finder
topological
##mania
##uw
hostel
enhancement
##udge
emory
fiesta
gunner
broughton
newtown
warship
yearbook
oversees
manny
tentative
bridget
249
davey
ev
energies
turrets
hooper
##rrie
##vara
laundry
puebla
trieste
mentioning
##oir
dissent
mateo
##vit
commended
272
plumage
##tour
toes
trailers
##hea
unlawful
malaga
nec
ld
token
##tula
hungarians
outlaws
quakers
testify
tunis
premiers
purse
walden
refueling
##ivism
confesses
pediatric
cy
initials
iroquois
hz
isaiah
turmoil
potent
##gai
doctrines
batters
unitarian
ignoring
##ehan
boiling
covert
dumont
booking
fei
cska
phoebe
##cam
quezon
historiography
petitioned
repeats
trivia
auditioned
starrs
##bai
grassroots
##ın
saigon
1721
rhino
wah
nonfiction
##lization
1675
jude
gull
knees
boarded
bonding
rios
unspecified
ode
##phile
intentional
##sboro
avalon
yamaha
knowles
stakeholders
tyrol
cn
prescription
aspiring
gatherings
piracy
antibodies
residues
##dda
244
261
alf
glendale
mornings
amplifier
##gol
vicious
##sg
##a1
##relli
denying
myrtle
##ptic
405
advise
bosch
vanity
welles
surveying
mesh
##chuk
##gham
##rcle
asturias
happily
messiah
rooney
##athi
mohawk
##mini
wakes
##web
aztec
conde
ingrid
choirs
fronted
footsteps
pitchfork
mined
sheriffs
640
competence
priced
willingness
bragg
##ffed
scholastic
##phobia
1695
flattened
hum
bucuresti
ingredient
hawke
mongols
gonzaga
greenberg
##uram
bog
leach
frankish
1705
accompaniment
##uza
compassion
enfield
outs
fuse
##ffey
gaga
muddy
waited
ferreira
gigs
##53
somerville
pops
template
bacterium
formidable
pronouns
##hre
##55
cantons
skeletal
strata
246
lieutenants
paige
rutland
showcased
crypt
centralized
yoon
##gged
marcelo
activate
distinctions
hari
##rut
mcintyre
patti
butch
shafts
##lux
argent
sheppard
##lates
##orts
ithaca
1736
##wed
reconcile
sonora
##wine
barrie
faulkner
mechanized
authorship
grammatical
scrub
sedimentary
shattered
trois
analytics
ito
remembers
revolutions
mcfarland
##tford
pointer
1629
##nais
garth
##took
ethanol
bingham
vincenzo
breaststroke
veil
1628
1672
lyle
salvatore
talmud
##jic
albrecht
##lna
amassed
economical
##zoic
1717
groningen
takeoff
demography
nadia
colonels
flyweight
neue
1683
abandonment
disappears
echoes
##xton
macy
##tures
elegans
epstein
gunpowder
seaman
##alla
apples
620
1711
##thal
fluids
##atics
cyclic
##ining
palms
##ested
##ropolis
##ulator
1703
##feit
recycled
lifeboat
pow
248
bradshaw
foam
imagined
271
valuation
##bour
octave
##dome
##good
##oire
revoked
tulane
helium
##turn
stimuli
emery
##27
vain
pedigree
ser
ioc
1704
75th
##ady
1654
##42
##optera
##user
havilland
virtues
ass
ejected
vinci
##castle
##ifer
ari
colbert
integers
southward
albanians
decks
rabbits
gonzales
thriving
commendation
insulin
##gens
##roa
##sons
onion
##mire
stanisław
fashionable
groundbreaking
##rim
sounded
##nst
bergman
clarity
mckenna
restless
meath
pinto
##gga
lied
##nai
gunfire
lieu
mathews
rotherham
##uge
gerais
##mable
blossom
dune
narayan
teller
drastically
indefinitely
dusty
maitland
bard
fairchild
kimberley
mein
##enary
720
limitation
##graphs
prostate
##bry
arranging
nationalities
quartermaster
timetable
leukemia
lore
synonymous
1738
quan
##lative
##lty
##with
classmate
fabio
ek
hearted
italiana
##ylus
albans
jurisprudence
cmll
darrell
hid
safari
tc
##women
nakamura
argyle
vivo
##broken
donetsk
mag
moonlight
##chester
climbs
rochelle
drury
fidelity
lucien
passports
comrades
jai
##ddin
##vira
1719
relaxed
##fulness
##body
entropy
infancy
beavers
322
bn
christophe
fencer
mcguire
##kur
##olic
1729
hauled
ste
##wheel
injunction
taluk
crocodile
##manship
sw
##36
salute
bantamweight
serials
##nking
barron
contraction
##cola
##xie
##chenko
samoan
##kong
lucrative
##enas
catfish
lpga
##fel
##otis
contrasting
conical
##mana
redundant
methyl
gabrielle
hobbs
graz
disadvantage
##lland
hangar
erica
zack
##gins
denton
diversion
implements
##plain
263
countless
##usions
halfback
##skoye
##tized
##toma
strained
forcibly
##sma
enslaved
outgoing
subcontinent
straightforward
geometridae
##lce
internacional
approx
fallon
variance
##vage
##ential
anybody
cl
husbands
windmill
##chon
##lova
administratively
subgenus
1666
kilometer
stacey
ripley
darmstadt
lazio
##jia
##ssar
fulbright
summarized
##carriage
packing
kk
##lun
beau
logos
##09
##atin
##bard
##ending
1716
preschool
wren
##recht
glove
schizophrenia
##agi
##people
ropes
pencil
306
##nzo
severn
arboretum
fijian
jamal
cornerstone
##kler
1638
tomato
##say
mcdowell
bloomfield
corrosion
mutants
backstroke
strengths
##sibility
bolshevik
corvette
ic
distillery
medallist
bazaar
reorganisation
##kor
recounts
laird
43rd
bullock
nur
##evo
carole
257
##yat
kochi
##ductive
395
props
##uld
assaults
penelope
##essive
canning
frescoes
privatization
branched
assassins
reversal
vague
##rke
classifications
doses
##tten
montagu
telecommunication
sloop
supplementary
canucks
mildred
rot
##cky
imitation
##ayama
##iser
1622
##iam
qb
zimbabwean
##zee
implying
progresses
principals
burundi
champ
exiles
278
andorra
recaptured
1709
greensboro
guarantees
kassel
vaughn
jaya
roanoke
cadiz
connacht
##dara
##opsis
coherent
compares
wrath
ignition
mcleod
bromwich
engraving
nuclei
bouts
housemates
##hei
##moral
##oidea
##kus
influenza
manpower
marley
288
pensacola
soho
weighs
madden
reproduce
christy
modelled
outspoken
##otto
cradle
dia
##vc
fielder
packaged
goldstein
sinn
##lib
1665
mosquito
reza
##51
##unciation
grenada
administer
donate
##human
obesity
poisoned
taller
##sical
vibration
##rap
##caster
##cius
peoria
1635
335
gin
toad
joanne
aqueduct
remarkably
twain
##gles
425
bridgeport
lazy
versatile
burroughs
ufo
##havan
##hesis
inhibition
ie
roundabout
1726
confinement
fuck
##ryn
migrate
##ply
radicals
jarrett
portage
persisted
waterway
##34
drying
laureates
##oof
##rde
exaggerated
meteor
posing
##raf
renaming
##pala
evicted
welding
waist
atheist
simeon
##puri
misleading
##ctors
##lger
grab
congenital
##nded
c1
hebei
horizons
1659
ono
##vard
ventral
abby
##enne
jharkhand
mcpherson
scorpion
shout
sykes
##oit
267
excitement
paranormal
rumble
vu
##tist
##aint
grimm
##tant
kyushu
tolkien
##opa
fjord
molina
##rooms
breathe
hermitage
wellesley
##ahl
thee
eredivisie
alla
overly
therese
siegfried
sulawesi
paragraph
patience
##rets
inhibitor
swans
widowed
258
greeted
saddam
##tp
depended
bd
stall
##nched
injected
upside
309
##zier
##ка
##46
badges
britannica
incurred
quarterbacks
recognizable
satisfying
##chemical
attacker
brill
tres
soc
##rust
daphne
1712
pollock
##zuki
daring
##gett
elsa
homo
c2
disagreements
##crest
##ntino
##rism
lynne
##ading
##nco
##elles
circulating
dump
galveston
##dini
##written
earnest
seater
alphabetical
grayson
contrasts
h2o
clarendon
denies
idle
steeplechase
##tec
512
blackish
cowan
##dag
##wain
guildford
olympian
privateer
serum
dormitory
motel
##ener
gottfried
zee
backstage
wcw
yielding
colloquially
vojvodina
##channel
##licia
heraldry
##llet
##owo
doha
volatile
cabins
trondheim
jess
##americana
dockyard
##amy
1540
panda
##pheus
abducted
bromley
lordship
precedence
scared
##het
breakout
kali
bjp
invariant
##aar
synagogues
##66
##icz
##zard
1656
1667
spaced
323
lew
lycee
chopin
##imer
nepali
righteous
martina
garment
susquehanna
pontiac
reputed
grandmaster
lev
1731
brno
##osi
eyre
stallion
impending
kobayashi
backbone
goodwill
britannia
mahmud
##gman
##itha
marche
annotated
mallorca
cognition
clubhouse
##aging
contempt
debuting
francesca
##26
overture
##bau
calvert
eastwood
magnolia
nemesis
nes
boasts
268
costing
credibility
mora
gently
guise
##col
##ophone
partridge
lace
eviction
316
hampered
allowance
vitoria
maternity
acquaintance
stalled
qur
festivities
louvre
##rred
esq
buddhists
correlated
##torm
medial
##icate
pairing
forerunner
wilfred
curtiss
steamboat
##cen
##ctric
downfall
lobe
slipped
##cology
boiled
caption
lure
##mity
domino
##fleet
feasibility
skyline
synth
##illary
cellar
leah
aristocracy
menon
##ept
glands
##uze
##kir
plum
##ctions
ferris
massif
##rder
##ن
causeway
tarzan
refurbishment
toilets
injustice
##ition
interceptor
pollard
registrar
##nidae
##plate
clauses
trier
##boys
leftist
removes
terminating
##romatic
falsely
simulator
skins
prc
willoughby
harmon
##ege
charley
iata
lori
sparse
concurrency
259
pictorial
daryl
jihad
vase
##hoot
labourers
prohibit
cambrian
##landa
lokomotiv
##kulam
fein
scriptures
##llas
cruises
##65
originals
1632
segregated
fitzpatrick
kunst
##dze
appliances
hellenistic
mesopotamia
roi
amman
lowry
nebula
sorrow
1697
##dou
conservatoire
gesellschaft
substrates
##sant
##teen
convection
vibrant
##bag
##voke
knicks
dent
simulated
violinists
charcoal
galician
##kiewicz
1698
endured
##khov
##person
##phine
blazers
269
caledonian
devotees
exhibiting
orkney
yours
276
##elial
almanac
brains
277
##iani
duluth
vendor
salamanca
unseen
congresses
##fp
hodgson
screenings
burnham
shortstop
##dson
##times
iain
##vious
1626
darryl
aggies
perceptions
rhymes
pinned
1605
fujian
fai
rankin
##tella
bodied
becky
evaluating
skeptical
##vism
sustaining
##bula
##ials
grover
ding
51st
retreating
##eborg
pantheon
pathogens
##dorff
indochina
outsider
peat
scotch
humane
assemble
hurst
superb
yeah
##proof
cornerback
##bang
266
hannover
mavericks
omnibus
organise
brightness
##mated
uv
##oce
49th
newborn
transitioned
ccffcc
guatemalan
##cie
marko
1624
##tsky
kellogg
claudius
revisions
brandt
summits
withstand
##horse
incredibly
nagasaki
345
anastasia
##stand
indictment
mundo
och
clockwise
esporte
antilles
prophets
##charged
##owed
44th
locus
##icy
##vili
bethel
##oca
gospels
acquainted
gardener
rejecting
yoruba
1692
arias
ascending
paddle
supplements
tufts
1655
##ibly
slain
blaine
swamps
404
silly
upstairs
##abia
610
boating
##500
napoli
faded
hannibal
pockets
##oge
mixer
salman
ambushed
intervened
useless
283
##eers
messaging
trumpeter
##pted
advisers
petitions
tore
tran
##lz
##pins
fade
merton
##akh
horseback
##hri
mute
hurley
vassal
##urst
pri
kissing
1699
athena
oleg
##gist
follower
##icles
##oping
hated
##hedron
claw
reuters
##dana
aden
modernism
unfortunate
margarita
translating
##chner
planck
##cephalus
ur
hearst
##leton
admiration
ike
replacements
primeira
##bation
##sner
choreographed
regimes
##schrift
hess
clapton
nerves
passeriformesfamily
poly
bono
campos
transatlantic
clermont
telegram
annette
synthesized
##99
##cian
booster
fran
kawasaki
nara
##tao
##tara
erskine
methane
eureka
mist
reflective
williamsburg
##dao
##mism
##cture
##hony
##runa
perfection
##orth
##aia
##mah
hodge
austen
fontana
improvisation
crusader
hawthorne
##lified
##onga
##pg
karlsruhe
stephane
1611
antagonists
harvested
naacp
tactic
turnbull
healy
showdown
##family
chairmen
riddle
##main
classmates
##chison
##pit
glee
losers
##iec
##zzle
beers
##rance
##vb
poses
##tat
##dice
##olate
1681
homecoming
mcgregor
verge
muzzle
buff
heidi
unionists
highness
restart
##fers
999
duc
volga
voodoo
abstraction
dt
partizan
raju
274
brescia
reinforcement
seafood
##bner
mule
argonauts
karel
maroon
307
kota
taunton
goldwyn
litter
flu
vip
chow
timely
rushes
##nting
karim
##pb
ahmedabad
riviere
estimation
larkin
josiah
caleb
##building
sabine
##oration
1604
hs
brabant
gideon
fellowships
##lence
##mission
montpellier
mobilization
remembering
1658
tipped
constantin
replies
1664
evacuate
proposing
ci
crustaceans
orr
70th
1580
dona
vegetarian
##tlin
##vill
consecration
exceeds
unpaid
##due
##mara
1609
serviced
##øy
##inas
alam
##lide
aquitaine
firth
reacted
##title
intrinsic
decatur
hezbollah
constituents
rockwell
syndication
##44
moselle
salts
spp
##ikos
throated
rostov
quarterfinal
##sius
##ione
symphonies
##woods
thorne
##oton
balancing
##cchi
##ogo
##ups
gorilla
magnesium
elle
markham
protesting
gee
leonid
pointe
regal
insertion
learnt
peptide
totaled
##sio
##coming
coyote
guarding
heller
##layer
##mys
proxy
##ulf
marxism
laszlo
mauritania
##ign
preferring
snowy
cuckoo
##eche
1634
hilly
subunit
disneyland
ness
##clusive
##tsi
b1
sabres
##nist
contrasted
remade
rouen
abandoning
ceasefire
assigns
yucatan
##dick
747
moors
560
sven
takahashi
##joy
insider
westbound
questionable
coco
exclude
madeira
clemens
finalized
motions
##bruck
symmetrical
islamabad
potsdam
solvent
tesla
##bbing
taxon
spices
dentistry
gregorian
##ely
1652
##ctylus
beg
souza
jasmine
residue
isfahan
marital
##singer
biplane
##hyl
curiosity
nonlinear
ara
awkward
##ouin
primate
slash
630
mazda
##eton
##oused
mermaid
assessing
##imi
##ouch
wb
##zov
botanic
1682
outlines
zum
##ception
##mor
innsbruck
mustered
##ullah
pharmaceuticals
cosmopolitan
abigail
##kken
amadeus
bae
##etano
creditors
toulon
dept
##pina
##rbin
##ths
informing
cutler
aegean
billionaire
epoch
##uh
1653
carmichael
engages
rn
eastbound
purcell
##inn
gora
indigo
kitchener
strikers
##nite
cymru
dominating
gotten
maison
##dina
convicts
hack
##race
##space
rude
squire
##cked
apocalyptic
bounce
##teacher
hatfield
##holding
##imeter
##utnant
differentiated
##dance
##dya
##nit
befriended
##bold
caspian
laborers
overwhelmed
284
fayette
##acher
lettres
murdering
##η
jena
manchu
milo
##tructing
grupo
keating
vologda
bubbles
##resses
1663
appleton
cv
euclidean
##sms
##taro
moshe
rudd
stylistic
u23
gallo
##tell
eternity
liszt
steamed
1651
danzig
flair
jalisco
v6
##encies
huffington
moravian
nightingale
notoriety
##200
breeze
chaotic
o2
##forms
dun
harpercollins
spared
##leen
1623
affluent
fictitious
##order
antisemitism
raiding
##iata
stresses
##rook
resurrected
salazar
deans
##endra
incarcerated
legislatures
notions
##vice
cultivars
upton
##aps
agustin
nominally
epidemiology
jimmie
tolerant
##lino
dumbarton
tanya
##ergy
horticultural
bestseller
stacy
##ols
rubble
katharine
tchaikovsky
##iologist
##lwyn
unconventional
climates
karin
nikolay
##class
croats
loeb
279
penultimate
vr
peppers
rm
##fine
designate
pulpit
widened
eastenders
modulation
nocturnal
leuven
pendleton
walsall
##loe
##orant
##overs
godfather
skyscrapers
282
rotational
friendlies
oder
##ttle
sibling
unwanted
##nad
dip
lulu
##anta
disturbances
douglass
hospitalized
##cade
flees
maguire
blackhawks
314
poured
wilbur
##boats
ignatius
messina
glossary
montrose
erasmus
trivial
##tria
296
winery
soyuz
peking
philanthropic
aarhus
achilles
estrada
##eae
mendes
nils
##sation
despair
deviation
##wolves
favorites
##hope
horned
juarez
aeronautics
concepcion
porn
cayman
grafton
impeachment
##ᆫ
aspirations
reproduced
yarmouth
##parts
##pec
dramatist
listened
menace
nagano
newell
ivanov
leger
jonah
zulu
##anov
##ipes
fontaine
greenfield
supermarkets
gag
gnu
ind
peng
umpires
faroe
parc
pluto
rodents
southport
##jal
2500
cactus
brody
orchards
299
##duced
coded
titanium
baked
branching
pk
verify
##gni
##lei
sawmill
wilton
##fast
armando
##ease
##igny
##ital
##holz
hermes
##vating
lazarus
distorted
simulations
##athletes
sikhs
293
cares
ionic
papacy
##lone
ayr
merits
mort
emphasizing
repetition
##hly
##nami
installing
southland
##38
##tris
##trix
berber
##antes
##cini
octopus
successively
cues
##did
357
rave
sima
offenses
huntsville
lobes
##hers
dunlop
##athan
gears
homogeneous
##isson
cheating
sevilla
condensed
hectare
317
byte
malacca
vh1
vogel
##kind
##para
kisses
plastics
blanchard
##vez
dfb
premieres
##bala
##eia
##eller
##lho
viz
##400
##dane
##ouk
astor
tariffs
bao
jamestown
redesign
##eil
nea
##acker
##orough
tempest
vittorio
1646
1b
bargaining
fide
##rition
1590
portico
##nose
##tek
gs
consultancy
prism
vigorous
52nd
292
drunken
newsweek
##phones
nicholls
##udy
tailor
trajectory
##ires
##rile
foliage
refrain
##ected
egyptians
pd
##rring
confirms
ellie
rudder
wow
##sov
allegro
clancy
gershwin
##gul
ruthless
leung
nbl
##vana
nunavut
stimulate
homme
##icative
##nessy
##paul
truncated
1618
diagrams
bosses
powerhouse
hardin
shootings
consultative
dire
##act
##shot
##wani
##wehr
bathing
orton
transmitting
##mind
##swell
novice
parisian
bellevue
##thing
eocene
aryan
commandos
hines
rendezvous
revelations
grams
narrower
wainwright
##ginal
##cating
keynote
newscasts
adjective
theta
marriott
##kesh
harpsichord
soluble
kant
##stle
ellison
macbeth
multiplication
applicant
armada
babylonian
feasible
fra
indexed
##zell
cared
peshawar
hamburger
sejm
##keepers
##cm
##uid
maru
regan
uncomfortable
355
hacker
mercantile
##ulous
##itzer
1598
289
crises
standalone
withdrawing
shreveport
vans
wanda
privileged
tung
conversions
fountains
alton
beasts
intricate
trafford
mats
bahaʼi
##sett
dorchester
gland
zoom
crushing
##grate
wheeled
##inga
flanagan
foxes
genevieve
computed
principe
abduction
situ
1687
clones
ornate
meade
##ratic
crested
ot
291
hue
ligament
radios
senegalese
##roll
stature
sous
ts
eroded
##gami
carbonate
seton
telescopes
##nat
cosmetics
##vera
enraged
reuben
turbulent
##cata
beads
##dust
##mey
grenades
ascended
johansson
##cana
##kic
braking
##æ
1560
##ayan
kathmandu
plaintiffs
compromised
grasslands
livelihood
sportsman
vedic
mira
scala
phosphorus
cree
##mist
khalifa
platt
dormant
wo
airliner
##drick
##ega
footprint
##carbon
001
capcom
headlined
resurgence
reductions
##partisan
##mination
##mg
328
defiance
laughter
sequential
thuringia
baccalaureate
##thesis
##pani
385
cantor
wendell
cocktail
noctuidae
respondents
thinkers
buys
cramer
##yck
319
candle
pasture
azure
##ndt
locking
residual
##eka
calabria
unauthorized
fools
organists
hypothetical
##gaon
##ports
townsville
indicative
1570
busan
joseon
swinging
admitting
opt
sms
parades
sweat
upland
seo
battista
captives
descends
hackney
kharkiv
calculating
arson
##52
baronetcy
defected
supplemental
qc
##lex
##tase
communicating
##duk
camouflage
curvature
dunne
esa
lg
offender
##onym
rectory
##nb
elastic
beit
stunning
##grade
gui
veneto
##flies
realities
venerable
##berman
accelerate
saitama
ars
##oms
##rno
jiu
##idi
iss
layered
therapist
ymca
banded
formulas
islamist
merritt
##hem
##mum
perpetrators
##mund
atrocities
topical
disturbing
imperialism
jaws
jealousy
runways
osborn
1676
anthropomorphic
pavn
balfour
insistence
athenian
stalls
wrought
##vr
thereof
fulfilling
1706
cholera
1684
fullbacks
rihanna
springsteen
570
darby
indus
wrap
decimal
copeland
fiancee
1612
##ogue
1627
moritz
olya
pursuits
violins
francs
##ikh
##rag
eel
systematically
##eux
reclaimed
amateurs
kei
1633
cones
ignorance
kraft
razor
inorganic
inviting
clashed
seekers
certainty
impairment
##etz
1694
directs
##aves
furnished
##pos
mammalian
mifflin
repetitive
credible
##oye
kazakh
##isches
412
hammersmith
isu
asean
scare
unreliable
simplest
590
charismatic
mcmillan
sable
respectable
bryce
sculpted
exchequer
##85
cores
purge
fukushima
godzilla
isla
##bm
appreciate
gainesville
battled
naia
##tails
##tsk
##werk
gratitude
lothian
radha
whereabouts
gillian
##fra
##lax
avoidance
regatta
flaws
pinch
sakura
sonar
polydor
hillsborough
phonetic
##eaux
corsica
breakaway
hierarchical
solos
chicks
##mium
##nham
compute
derivation
##kina
notch
pamphlets
##ishes
gustave
mandela
manipulated
##icio
##lins
tyres
##smo
fabricated
##bilities
buena
relaunched
##week
##lau
indications
domes
jolly
nawab
fourier
outsiders
villiers
warehouses
luisa
sikkim
##tung
##olis
46th
breakers
conscription
essen
##pong
pei
stagecoach
sewer
##mac
##mot
##rada
1693
felony
##naud
##stead
324
banknotes
deliveries
mercenary
338
##hale
illustrates
janice
conus
##upa
olympiacos
alameda
aachen
azores
melt
naga
behave
sargent
##hou
excelled
implicit
##umen
alcoholism
##oux
np
perak
1674
juveniles
contiguous
embankment
geared
patriarchate
poppy
aldershot
ortega
tb
##ensen
evenly
mccall
scully
spores
##museum
inca
##wt
1678
toss
vines
gage
sulfate
arjun
advising
badger
adolph
##coat
##henko
580
disposition
fatima
membranes
##tose
cancers
inexpensive
supervisory
intercourse
##osta
##owitz
gorman
regression
teaser
##loh
hermit
##cheon
javanese
elf
rescues
transcribed
cluj
craftsman
macos
michelin
cheer
smallpox
##fur
pots
##dberg
estranged
##eran
yuki
##rac
augusto
rivalries
jeep
deng
excuse
punish
westfield
bland
libel
paints
##llar
avila
dubois
sigismund
##esti
##tide
1691
dieter
remakes
serialized
##pation
conveyed
siegel
tubular
##llins
##tens
redistribution
411
##mn
##quel
henson
triathlon
kendrick
conform
joshi
##gano
descend
dutton
helix
prequel
pegasus
prem
commemorates
resin
331
improves
oskar
osman
sousa
adorned
vitro
##edo
##suka
carvings
318
confederates
dogg
commence
cookie
penetrate
sheng
executing
1616
fallout
weakening
##tonic
entertainers
##qvist
alexei
barrington
rodrigues
##oles
417
cruising
slides
clerks
tastes
##ared
devonian
merseyside
andrey
irina
mandy
##graphies
coppa
##tima
dade
polymers
##christ
##iste
inmate
cater
corridors
tun
##inho
elektra
jacobite
1696
educating
cafes
winslow
##eded
artefacts
1673
48th
civilizations
mcconnell
##lita
ashland
deutschland
microscopy
##71
##cake
##sil
promoters
##talk
burgos
crowns
##neil
postdoctoral
cedric
matteo
kelvin
mana
##lak
cisco
multitude
erika
##yeh
correspondents
depleted
yue
##ssus
cracks
libertadores
resigning
wadi
##itaire
vertigo
##29
usable
fars
thierry
##skie
mimi
transmitters
##mple
trillion
##sini
claws
realises
forgiveness
graders
kor
##cure
sanitary
##taking
##lke
##valent
1607
##nary
defamation
unacceptable
##buck
adi
livingstone
##ados
##nio
##ntal
##utz
assertion
blended
fractured
grill
moi
rotated
koreans
##uang
brawl
pepsi
woodpecker
##lata
##aceous
##sheim
mustard
weaponry
feldman
jedi
zoologist
hottest
##lithic
horizontally
internship
amore
##ador
##hle
##masters
abolitionist
ferrara
mammoth
##voking
inclination
regulators
sahitya
illnesses
modena
populace
##real
##rrier
catastrophic
##itarian
##ckling
##hid
colegio
fabulous
whitaker
partnering
ferns
rediscovered
##may
elevators
fabrication
blanket
tee
##nau
lyman
sebastien
##igent
grinding
pau
roberta
##nitz
57th
xp
lastly
##lte
fatally
nestor
##liffe
gael
dominica
vulture
faye
whorls
bertha
kgb
##eland
1614
pavement
##astic
almeida
loyalists
taluka
##mit
huber
wellness
canoeing
consolidate
ethernet
microbiology
soy
theoretically
##iden
porte
utopia
perm
##esthesia
macro
seminole
analogy
authentication
##tower
1686
futbol
environmentally
mango
##brick
##eering
clarified
twinned
##lach
icf
tags
transient
servicemen
##lv
malabar
himalayan
maximus
expands
verve
##jean
reused
warlord
##esi
##meric
##clave
hallmark
laptop
marcia
faint
latina
##block
##gur
ama
inadvertently
unto
rebellious
sint
##gres
gogh
adoptive
gamer
viper
##xt
bertie
##tee
356
aix
kingsley
##erine
##izers
cocoa
hyper
tercera
venezia
dismiss
jameson
princesses
##gnan
interwar
moderne
itu
moray
##ij
havre
massimo
##meh
patna
torneo
337
diversified
mach
malley
pali
##gating
##hedral
415
wrestled
fenton
4a
lays
tay
whisky
goran
gunnar
##tery
binghamton
delgado
duane
1637
pleas
##cton
bender
cpc
reclamation
##aught
antibiotics
prohibits
adolescents
suspense
sligo
cricinfo
tracey
403
internment
vt
960
dakar
mahmoud
praying
dario
francoise
tilt
##×
coarse
##vyn
##ου
buren
lesotho
clover
headlining
mezzo
venerated
terraces
##punk
530
cameroonian
magdalene
##82
##cina
aromatic
crooked
distinctly
interned
##omys
mediation
vertebrae
##logue
gecko
##logic
grim
magnate
improper
kindness
lear
multicultural
asher
breasted
##vais
xviii
##arily
password
vulcan
1820s
alternately
##lley
publicized
##enes
##kovich
opined
##nish
banco
hilbert
##cial
1619
semantics
##owe
47th
airplanes
ceilings
marquez
starters
yoo
##strel
maneuvers
wat
##dines
gal
##pps
beverley
chongqing
flock
keane
sentiments
adherents
headwaters
metadata
orchestrated
chariot
recommends
##frey
##mber
##rchy
backlash
climbers
##tzer
##uno
facilitating
answering
cub
deepest
edict
oclc
klan
nazareth
##for
luz
surpassing
waivers
##iye
clements
##tea
navigable
pathogen
##pkins
arterial
contenders
anthropological
himalayas
mbc
creeks
1639
aggregation
lasers
mimic
tabloid
learners
ochreous
##oel
##sile
custer
frederik
chihuahua
cleaner
fleets
salim
secrecy
##jevic
flycatcher
pv
turing
agatha
beatty
ratification
##nella
disposed
goddesses
reunite
castes
343
doorway
hemingway
maestro
ae
violate
catalytic
shonen
1636
##nosis
fewest
##gner
##unes
cgi
expressive
leasing
recounted
##bari
1601
royalties
xl
##fk
prohibiting
dilemma
enriched
ob
flyer
plotting
stuffed
##на
sonoma
airmen
schwarz
##dea
##roved
##rral
bellamy
##ahu
660
declines
tab
acidic
frontiers
##tka
valiant
kruger
diva
ostensibly
eireann
permitting
whoever
##dates
##egorical
disrupt
294
betsy
##tak
calderon
cue
timbers
1647
##х
vasco
bodily
##apple
warp
##bane
##nology
excel
##м
crook
mcnamara
##lka
aldo
asahi
discouraged
guerrillas
1572
manx
extracts
spoon
andersson
andrzej
shrew
uniting
dispersal
valor
##erre
##ibed
##ulet
1669
jar
kimberly
trough
concentrating
heraldic
superhuman
##rber
##zmann
1585
##ahan
##ired
obey
##koff
##writers
1613
checklist
##ondo
##osomal
##pre
##vio
borussia
illumination
philology
curt
##lora
eugen
bautista
egan
336
disadvantages
liter
shit
casinos
confusing
##itia
##kshi
rockford
dahl
##umba
inferno
starvation
##shaft
gaul
##wg
wessex
##phonic
##physics
##unch
disks
filippo
yachts
##gno
hints
picturesque
##sonic
armory
reckless
demoted
kimball
lust
##61
gan
##icing
341
advises
accra
##fford
##tedt
davy
enactment
vaccines
##eys
ina
##oj
##pati
arden
mukherjee
peugeot
##sper
conqueror
##tropic
##mian
##oured
##lje
chechen
##43
smyth
storing
calf
cong
dissolve
fares
timed
inherit
mccann
pakhtunkhwa
##ference
##nny
elsie
programmers
glad
leyte
shipments
##sw
kew
##ettes
##uela
diner
##dated
##opathy
grimes
hasn
##ulu
chorale
eats
490
borrowing
akademi
maui
mfa
rosenthal
sabrina
scaling
##ulations
dislike
fina
kanye
minnie
fortuna
nsa
bayou
1657
sava
##abi
##lga
20s
gestapo
##jing
haired
##chaft
##ghi
minogue
ox
sofla
gunter
##pres
allotted
bloggers
woolwich
ric
tn
federalist
inquisition
projective
wurzburg
##88
1668
##mined
essayists
##rath
bending
susanna
cas
jaipur
balloons
lister
nutrient
centrally
sham
palau
villas
##moke
budgets
overwhelmingly
1606
anwar
510
##hui
hadn
pickering
snowfall
402
horst
observes
##cript
1615
wiesbaden
outrage
pedersen
ramps
aiding
quarries
sutra
##very
ee
friar
interpreting
glow
celia
dustin
goalscorer
##oulos
6000
adapting
bolsheviks
altering
##fowl
##sad
norbert
wuhan
bertram
##psy
fences
standardization
hash
hiroshi
##alus
##eptive
352
ctv
casts
duets
##hlon
##rissa
astro
intermittent
scrolls
angie
hackett
upgrading
##dna
renal
##vig
skopje
##acing
##merie
erebidae
federated
##nata
adequately
tents
crore
heartland
##cf
##41
407
motorized
##rem
cdc
shipment
##atal
pianos
##nated
deterioration
epsom
pads
cascades
factual
thence
deutschen
donnelly
##iso
closet
##sim
herefordshire
absorbing
cranes
duos
##cay
intra
shamrock
fiance
visuals
##bov
326
conservancy
femme
jura
triad
holm
stigma
aichi
westport
assimilation
##fat
irs
mcintosh
batter
compliant
yemeni
bassett
##rti
bribery
conditioned
zachary
##bron
297
taped
antennas
braga
forsyth
stray
##fare
vidhan
evidently
gall
alteration
cured
riff
universitat
scarecrow
##mation
gonzalo
##nski
##rosis
departures
reunification
streamed
bully
slick
##icle
hirsch
##zynski
anthropologists
shocking
##cid
vis
este
scoreless
smartphone
mandates
##lingen
cosmetic
##tres
eras
minerva
pumped
zimmerman
phonology
alloys
ami
escorts
qu
saline
haji
##edia
phylogeny
restrictive
##chis
##gf
billing
barbarian
ashford
bf
ferrer
gaddafi
##ife
##plin
422
widening
351
fresco
juris
##anial
##veda
##aver
##formesfamily
##bley
##inations
##uku
cesare
folds
indefinite
stipulated
ape
attach
mathias
martinique
nhk
100m
iteration
##bur
##tik
##gupta
gables
midtown
stratigraphic
nunez
periphery
waits
gabled
##edge
milky
aj
inaccurate
csa
hyperbolic
jenna
##ples
vidal
##47
baseline
nell
umar
bissau
exponential
ict
proficiency
##brucken
##uance
crabs
vichy
socket
##gah
##idase
##rization
assassinate
##mosa
##usive
hays
##ngton
forehead
##bium
fantasia
maverick
remington
soloists
coward
funky
##56
##naga
medicare
vanished
##hq
australasian
biathlon
snack
stealth
##pard
archduke
domestically
nic
354
breweries
grading
judas
##tered
influencing
##cultural
##wright
##zko
accelerator
buds
hana
satisfactory
##coli
##ssey
##tish
charlemagne
wynn
lehman
lei
perished
indices
parodies
frey
puget
##pering
##tracted
landau
298
apertura
lacey
##pher
afrikaans
millwall
bandit
horticulture
##bab
dwyer
equivalence
rasmussen
angolan
327
condor
##kali
406
525
hound
1602
##zers
monographs
monoplane
greer
##dur
##kol
##wil
lowlands
augustin
splash
##ddle
bloch
azad
bam
dubbing
masjid
lesley
ornaments
yellowstone
##uished
cabrera
enigma
punta
rec
##illus
billings
bookstore
sitcoms
linn
proctor
##ature
##mack
##xar
##atch
##khar
##naya
impoverished
polynomials
##transferase
devote
mayfield
schumann
nirvana
ultraviolet
##vies
lexicon
widows
##rns
dh
##dding
kala
santander
cursed
##bund
##ppel
overdose
helmets
##evsky
bjorn
breaker
honeymoon
##quan
##unga
##chief
informatics
validation
##mut
chittagong
##belt
##uting
avec
baggage
##anes
berliner
expos
frazier
55th
quartets
lobbied
schoolhouse
##ift
lifespan
lucie
pushes
schloss
tvb
hendrik
##year
kylie
##opolis
sleeper
##cey
##tering
announcements
antiquarian
bryn
honduran
##dum
429
rallied
vasily
antonia
elliptic
lst
##aldi
gaulle
purported
completes
outlying
middletown
solids
transvaal
##listic
##mbling
blanca
bites
fabrics
##nha
albedo
concise
osprey
421
baptists
horrible
southwark
waikato
colourful
authoritarian
clandestine
supper
hangs
commencing
##cq
nikita
##lifting
accessory
##37
##ynski
dictionaries
pentecostal
##erg
disqualification
florian
1536
amd
falmouth
relational
xxx
##hair
##tun
photon
sporadic
##itors
##iter
##kk
kato
nyu
roadside
vicky
2em
canto
##gem
##idis
biomass
##tlan
cleaned
restarted
##vania
launceston
modi
##test
apes
wiped
wounding
##pipe
biased
fundamentally
haarlem
planners
£10
##д
##iliated
##inson
adhere
1558
reykjavik
##litz
investigates
miniatures
##kei
psalms
rehearsals
verandah
wasted
indira
instrumentalist
##science
filtering
saba
gama
rayon
cochran
sopranos
huts
blogger
renumbered
anatomical
forefront
giulio
pagoda
cricketarchive
cine
lauded
bydgoszcz
##miento
1677
jerzy
acton
bien
hacking
tbs
332
singleton
##kata
coe
1592
epsilon
lush
spitfire
##hedra
##phi
##turing
hadley
nonsense
##you
ellsworth
##types
chalmers
nexus
dobson
limburg
nevis
encompassed
penis
##pert
coroner
cfa
collateral
gel
ter
rada
ballarat
hoa
reliefs
slept
craftsmen
seizures
##coma
##yak
##yro
administrations
jimi
chemotherapy
varma
##kota
finishers
jeans
lux
##ovac
leighton
wbc
##uso
chancellors
##peed
gwynedd
dorado
##lco
chromosomes
flanks
lorenz
nellie
roar
##ogist
accountants
collisions
hartman
##hita
combo
vibe
luka
astra
longevity
sewing
##hala
alphonse
redwood
##reh
ata
rumored
slice
hepburn
incompatible
piloted
dementia
lega
pos
##beau
quito
variability
##qing
regulates
marques
peyton
##ntation
andalusia
anson
##cara
robbed
sealing
pious
superficial
tyrant
##bao
##loid
khuzestan
339
experimenting
seaplane
##jali
##tyn
crawley
nasser
spreads
gomes
salsa
unsigned
ashok
##54
##tsch
##cel
batavia
vox
primates
crashing
stimulated
cavan
##rten
##tyle
##iful
letterman
##inos
unsuitable
conn
pls
adjustments
immersion
enrichment
refit
##eak
435
oldies
ova
##maa
##mai
deutsch
rohan
torquay
gottlieb
sentai
##nice
##raine
##sex
bukit
debating
visualization
##naki
##guide
humber
robins
utilization
##riot
dauphin
hepatitis
kampala
bharat
valladolid
##ories
wreckage
##eras
##rdan
cookbook
##iably
artifact
peacekeeping
mala
researches
routines
##tified
arundel
raft
crows
fianna
abdel
handing
##eris
##lı
##rida
foraging
mika
sadie
1608
leith
toc
##swick
manu
reminds
##patrick
364
enroll
permian
lark
flinders
##ivated
##rive
##zik
1588
##hagen
bakersfield
casimir
iconography
dentist
vest
##arus
rebellions
##novic
sticky
violently
##orcing
##ησ
andover
laundering
##uppe
56th
spikes
##around
2b
tak
##meister
nilsson
tamara
##eren
##pra
inhibit
##drome
53rd
banners
embodied
legions
elliptical
bladder
redeveloped
fragmentation
ghz
manifestation
newcomers
tatar
travers
hampstead
malvern
mic
vocalists
##ined
brutality
leaflets
visionary
##edes
enchanted
memo
esperanto
##inium
1597
murderers
##yong
##acio
##rez
##vino
bombardier
##america
superleague
steppe
##graphie
elects
fredrik
tracing
##62
##isha
##prints
kwan
revolving
silas
socrates
mustangs
##chai
brahms
classed
hydra
lander
mendez
384
assign
##cologist
##elman
anc
durable
martyn
invoked
##hane
##igen
selector
writ
ammonia
posture
rousseau
necklace
occurrences
rag
anarchy
maher
microscope
relocating
##grown
elaborated
orbiting
currencies
orthography
grizzlies
prefectural
greyish
jonny
obstruction
##eron
##khtar
##kman
axial
unicef
convertible
maximize
##idium
1596
mcqueen
##kura
magdeburg
vhf
##cteria
cleric
pilasters
pressured
##jj
berman
finely
##aal
departmental
squid
1530
isotopes
librarians
murcia
watanabe
##hb
dorothea
geologists
lana
constraint
asthma
##ayo
##bata
mummy
##erian
ringo
##pse
##kreis
441
tenerife
encyclopaedia
demonstrators
##rip
anxious
awake
misery
recital
traitor
entomologist
gustaf
nis
wc
##liner
marshals
##ckel
##dity
##heater
1450
allsvenskan
artisans
bellied
wrestlemania
##ifice
##pect
475
##motion
himachal
##ometric
fearless
modernized
samba
##chers
##site
yuen
329
paced
##bular
croft
damned
horatio
polled
##etes
milestones
notification
sentimental
mis
bipolar
navigate
##ianus
##venting
heinemann
54th
furlongs
##bok
##dek
##rons
##then
copying
gracie
isotope
sash
tartu
##neta
roderick
luggage
505
insurrection
parliaments
dorian
planner
reims
schaffer
##scu
argentinian
biographers
turku
gough
ozone
rojas
##anger
spurred
whiting
telecast
boo
retrieval
##sana
aramaic
lacy
risky
detecting
djibouti
dumfries
mahal
##rides
pic
undermine
uno
##jen
tubingen
inversion
shang
e3
eared
##ask
climatic
infirmary
kristen
##aum
##tization
temptation
##enheim
##fon
1617
commits
unicorn
##eger
##shen
##akov
##ases
##eries
##lick
apparel
commuted
dorsey
misses
singled
rainer
1631
colonialism
##lso
binomial
jia
##asted
eruptions
ligand
361
chaplains
emu
signifies
pillai
##rogate
primer
##vitt
cheney
##scan
dil
horsepower
##eanor
holotype
##pat
##zhong
selby
brit
federer
fraudulent
nxt
colby
reminded
cuthbert
greenish
##mide
auditory
congolese
insulation
manipur
##quette
chieftain
mun
forgive
##wp
draught
grabbed
##gned
cara
compendium
kickboxing
linen
relaxation
delaney
eminem
wastewater
##omed
occidental
coolidge
temper
garlic
assad
mania
363
detectors
fascinated
kyung
##rh
constructive
fascinating
lodges
trujillo
##eza
1559
##lst
##zl
880
getty
yoko
1671
localization
451
coa
nightly
havoc
##taka
##wska
coyotes
equator
##batic
burgh
##ags
sho
fitz
bop
borrow
##essed
grenoble
mathieu
gotta
euler
##formes
##nsk
adjustable
izmir
fokker
##yden
##onis
showcases
##bald
feral
newbury
socks
gifford
junk
servicing
beautifully
schism
##aking
##aku
niels
nietzsche
sonatas
sorbonne
majestic
muriel
##63
##otype
salinas
##olar
dumb
leases
334
chopra
crisp
duplicate
##lue
preventive
restraint
nectar
orson
##59
##urse
papyrus
weaknesses
jelly
tweed
90th
intend
joo
kristin
##jhl
fw
reflex
sacrificed
unsafe
##sdorf
bored
concertos
puck
reworked
##jani
##koye
montague
trousers
zamora
mathew
##yland
boon
waldo
afi
merle
chet
hormones
##pore
875
keepers
##rya
jana
maratha
##heard
##sle
frans
bulb
ivor
uttarakhand
sadler
1547
amp
brandy
##77
antibody
uta
anzac
##inian
disadvantaged
predatory
##enden
dunkirk
408
projectile
trudeau
undoubtedly
##orting
moravia
substantive
authoritative
worshipped
##einde
degraded
##utable
ousted
antoinette
skirt
##lden
topeka
##arum
champs
oven
##ischer
80th
nutritional
reintroduced
rotate
yamamoto
dod
elites
walkers
kun
##ozoic
ample
bmx
meyers
upi
lucille
motorola
restricting
velez
shanxi
1584
enjoyable
polynesia
##ewski
##tol
attaining
cassandra
desperately
##rau
344
coburg
gibb
pills
347
silvia
##chau
##uai
cafeteria
emmett
fonts
hires
illustrating
trainee
##osus
engravings
eskimos
ops
##cr
##izations
##ushi
chengdu
##foil
##pola
dempsey
entre
olympique
predictable
##cken
##rar
##vind
kia
##bolic
##lch
eindhoven
revered
##mera
##points
cosmology
fission
outnumbered
pastures
##jr
objection
##wit
occult
ambiguity
valparaiso
danes
externally
knocks
stabilization
protections
##thon
##atter
dragoons
perseus
simulate
##geri
cellist
fayetteville
specifies
iberia
gwr
j1
sparsely
##breakers
##tori
455
acetate
arun
tuna
381
deserts
##drive
inference
##systems
arrays
reciprocal
##rwin
##sang
causal
acm
eels
multilingual
pcs
vowed
##gart
##racy
##wash
basalt
bowers
matchday
powys
##idad
illicit
landfill
##utes
clinch
1520
hogg
hubei
taxpayers
bac
blockbuster
##akes
villanova
£5
##iron
exiting
linebackers
encyclopædia
jstor
shutout
hornet
shaanxi
australasia
flavors
##rent
##rva
cinnamon
mri
ported
rhein
##lasm
benches
biking
financier
hussars
identifier
lukas
##81
spearheaded
cigar
cipher
gallipoli
386
davao
federations
apologized
brink
pharmacology
eta
poisonous
##centennial
##khi
##lac
nostalgia
remotely
##center
mauro
##write
palette
superiors
##57
kuhn
jeong
##jie
bandar
curate
##msky
##typical
coloring
##dive
##ffected
emitted
władysław
##ksa
nasty
winfield
##ggles
marsden
expansions
governorship
pursuant
##nnes
reclaim
dundas
##ytes
353
davison
outputs
puppets
##hner
##saka
##version
760
cervical
immortality
##tious
##blin
biosphere
bureaucracy
359
abnormalities
additive
leland
##ghan
bandleader
couch
funnel
liquidation
loco
appropriately
beak
aguilar
impress
diamondbacks
shutdown
tijuana
##awl
dissemination
specialization
transistor
##kamp
trident
a3
courtroom
linz
subsistence
zanzibar
##lster
##pressed
meng
##dens
britten
kanagawa
ffbbbb
geraldine
kitts
nagpur
racetrack
##mbat
##ggle
##xiang
kilmarnock
£100
dalai
eau
hates
darcy
aura
ganesh
microscopic
needles
pill
imf
northwards
spaceflight
ipc
##tong
##unde
##vista
bonded
accusation
engel
##aday
##mea
optimistic
##ccini
##ilian
##tata
balochistan
hartlepool
willamette
gestures
##olt
evansville
##ount
appointing
borg
cornice
laughs
nath
mons
##lthy
chickens
liquids
monsieur
##isan
##rato
##duce
##esque
rko
cid
spawning
unc
alleviate
judgments
mehta
sixties
whistler
##veen
spielberg
##hna
coates
##liness
extracurricular
thurston
##ality
##burton
409
dias
dissatisfied
shady
adultery
##onn
##balls
##kopf
##nner
##hav
antigen
##cend
plaques
yamaguchi
##chter
corpses
prehistory
xxi
converter
371
hilltop
kaunas
##gence
altai
zoning
##tsa
checkpoint
posse
##bain
##hati
##mous
renato
frequented
univ
nizhny
collapses
gunnery
celine
j2
onstage
##hida
##wami
herzog
radically
346
bequeathed
mobilized
##hne
baking
distinguishes
ganga
quang
431
banished
fullerton
ks
pinnacle
curran
loft
cessna
##mler
aerodynamic
raptors
teaming
##bitt
##eles
##rga
encompass
##hut
##viso
ecm
meteorology
narcotics
bain
##ahn
strategically
artemis
deformation
interlude
taxpayer
lavish
barren
initiating
childbirth
formative
purification
daley
ivo
00pm
taxis
##olithic
apa
##wort
cartwright
##chens
airship
accademia
barangays
highs
mariner
mortars
paddington
##sures
populist
subsidy
defenceman
comfortably
heaviest
advertiser
configured
orthogonal
##htar
707
necked
##minated
##rava
pullman
##mburg
##oix
nicknames
##bbles
aground
selects
##dem
##phal
##philus
##bla
garments
kalamazoo
auvergne
nasir
sanjay
##neas
labeling
nugent
triangles
##erent
avg
protestantism
sheds
stills
gillingham
roofed
inspectors
marrow
qf
cooperatives
trey
##wf
##cii
endeavour
degli
##dered
abi
##int
##raphic
cali
##eros
##rrow
b2
fcs
lockwood
martini
scent
##fier
cultivar
deva
raider
referencing
1586
blackout
fuzzy
pia
remark
##movable
##reen
militias
thyroid
michelangelo
outdated
counterattack
kano
##jiro
1571
gallons
incapable
##aise
##pw
guelph
spectacle
tombstone
##tral
chill
##ppan
##yun
falkirk
astoria
roxy
##lap
hedges
oncology
rib
##cessor
elizabethan
prentice
thrive
crystalline
stochastic
##kva
##mins
moderator
##49
##elius
##rgo
mortally
##ewed
erickson
##actic
haig
pancreatic
wilfrid
cops
vertebrates
weymouth
acknowledging
lid
##gene
abba
galatasaray
377
clearwater
rampage
tractors
##omer
boutique
imperative
surely
paine
unsolved
##anna
burbank
oldenburg
crowe
376
##rvis
allahabad
bonnet
glossy
islington
mrna
##aut
##cision
##iced
##mpo
##tland
##wali
buxton
frontline
hickory
lcd
##ciones
cochin
##f2
348
adventurer
bandy
bytes
mountaineers
appropriation
aquinas
vortex
bait
dumped
dall
launchers
midwestern
##hina
##doc
basics
priscilla
##ørn
blindness
psychotherapy
##ggi
asserting
erection
utterly
##cube
##rios
cai
lambeth
##ceros
##luck
##mmy
##loss
arne
cobalt
haskell
##colo
labyrinth
##oglu
ses
facilitates
rebelled
reina
##taken
1555
casper
wheelbase
##hira
elisa
uh
cartoonists
comptroller
hadith
qualitative
##poda
diablo
lodged
pearls
tierra
urge
showcasing
##nning
1595
hurlers
##kled
##ilus
rourke
carp
suresh
##inan
cries
saturated
tempered
cakes
chai
eurasia
##grin
walther
ballets
flipped
naturalised
uma
enthusiast
1593
londonderry
##iole
intern
rizal
##rms
416
heightened
##rard
queue
believer
benevolent
memberships
##llary
##she
felder
xiang
polarization
tre
##vala
bedrooms
intersecting
potts
praises
##cine
##erang
##gata
368
afforded
bitch
bumper
interspersed
splendid
##fell
persecuted
vizier
##vp
badgers
modernity
flushing
oberlin
penrith
reminder
##rzon
plurality
tashkent
##hofer
polynesian
##river
##urm
depots
342
werewolf
boniface
outscored
##yet
amplifiers
baptised
oise
emails
##rco
perceive
504
escorting
##coni
quercus
embryo
realise
rubio
thanh
##95
##ioni
farrar
kidnap
##arina
toto
pee
vested
wyndham
grille
thrash
whereupon
##nho
##vita
##lais
avignon
corrugated
enforcing
##lme
##nesia
1587
shenandoah
1565
aldrich
mangrove
##placed
dusk
pandora
leverage
furness
nadal
t20
##builder
corinthians
reformers
870
handheld
##llam
##ة
looney
panamanian
rhapsody
##beam
townshend
378
promenade
winthrop
##enna
ballast
##oaks
##weg
##cous
favourites
metis
vikram
1553
495
##eral
##owicz
cora
£3
debra
jian
jtwc
rufous
##rtus
elves
##aked
anarchism
durga
salad
postmodern
##ogen
roscoe
##lgar
##new
operatives
rensselaer
##nita
candles
devout
extras
zodiac
sql
##isted
##uja
##arra
bearings
empowered
zappa
##67
jen
pixels
##emer
##nery
##aldo
disclose
madurai
mastery
troopers
##copa
##nostic
##otte
recapture
sapporo
##tale
jg
##gou
sneak
##cede
gilded
organiser
facades
keefe
pipelines
spectra
##onian
##39
##hie
##ttal
almond
illustrious
iqbal
amend
rembrandt
##loo
numerals
hurdle
savanna
##cidae
##iciency
1599
zebra
bans
damn
excursion
grenadier
##alo
polygon
puri
##ayton
flawed
##idia
patriarchal
hampden
jalan
##92
##hikawa
deutscher
insult
planar
strands
##fect
hof
parity
suffragan
abkhazia
musicologist
ascot
cdu
hypotheses
mennonite
##leh
dysfunction
packets
parochial
prefectures
angelica
mol
##grounds
##sions
logistic
selma
tick
gregorio
manchuria
drafts
oates
sanderson
tahiti
refining
##ibus
drones
kenyon
438
##furt
##mbled
bulbophyllum
ems
passions
##eek
##vur
asbestos
kickstarter
obedience
##meria
corresponded
oecd
##abs
##ando
##burst
##rnier
socioeconomic
warhol
##imating
coloration
conor
##noy
##yton
signage
##jes
forte
##fang
marietta
stargate
austrians
ethnographic
israelis
##pating
guangxi
##roi
gallen
preach
sweetheart
##mei
covington
fetal
##otsky
##otus
ascribed
pandit
##tique
avoids
kremlin
cartier
condemnation
##come
##irk
favorably
##eff
413
schiller
guadeloupe
sectional
##rax
##rdon
bello
cracked
kinship
ludlow
##wh
59th
##cka
##cured
##yria
combatants
##cleotide
epilepsy
spec
temperament
##arable
##gration
##rocity
##rrigan
divergence
##hasa
##ype
gateshead
tf
abbasid
brevet
hershey
fg
furnishings
mentoring
stepfather
terminates
vanilla
piercing
##flated
##rly
fireplace
mushrooms
727
businesswoman
childless
jacobson
stormed
durant
fluorescent
rested
consult
pedagogy
recreated
roughriders
starship
##sor
555
uzbek
vom
##cak
boulogne
##cket
adamson
berries
upbringing
##rsham
amur
memorabilia
outset
##graphers
##nnis
remodeled
366
reborn
##quirer
electrode
gliding
jd
andean
racine
shouting
shiny
##lists
##yson
inevitably
lough
##poli
agra
jerseys
##sop
cereal
marek
algebras
figurative
dissident
sited
hinted
uniformly
##ork
367
##cliff
##vani
superstructure
benefactor
##jang
gastrointestinal
henchman
regulars
##hare
aidan
mooney
yeon
awesome
pico
whitehall
scary
##lage
##tream
cpi
##hynchus
bloomsbury
740
sala
##chule
d2
decrees
billboards
bute
ghosh
ordre
##zyn
nom
ravenna
tangent
yeovil
##plicity
coles
parenting
##tava
dizzy
sorting
contractual
shawnee
tuba
##iele
##ulture
bancroft
addis
palmerston
##bati
##tude
##witch
suspicions
##tooth
reactivated
syn
carly
grumman
petite
resentment
65th
hoax
##chfield
##pire
expectancy
adopts
cio
stadt
##cham
##erable
##omyces
##caps
plight
sugarcane
curly
hose
magdalen
lamont
piotr
prodigy
ardent
blending
dictated
pty
score01
trapping
##dget
fiery
lawful
##pee
##vii
bethany
monmouthshire
redmond
fortresses
haut
srpska
weaken
twenties
1086
##tenberg
##vius
crockett
embassies
geographer
deforestation
reclassified
rejoin
rescuing
thrace
bong
##aat
bargain
indexing
##cit
349
detachments
psychoanalysis
wycombe
##zzy
accuses
mansions
tallahassee
##wee
habib
##pora
##vere
anarchists
cad
demi
bananas
spouses
##vocation
censored
metallica
##reux
##sual
##gnosis
horsemen
frs
tm
trumpets
tuck
thicker
insanity
workings
altarpiece
##dike
414
639
falco
pulses
##eson
##hti
fridays
##kul
##stas
notebook
rescheduled
##reus
670
##lmar
##nomic
accents
cardboard
qian
exemplified
marcello
snoop
pf
sulphur
##pid
##tb
dalmatia
foo
vito
reopening
1521
fermentation
manuals
triples
##gidae
flex
afterlife
negligence
weld
fidel
unarmed
##alic
heresy
lakeland
persians
brahmin
nai
taboo
##rique
##ои
aqua
captaincy
distal
esteban
jock
rv
##lington
##zumi
##jung
358
beale
gaye
##citation
pictured
##enville
##tute
cracking
motherwell
stampede
ccc
fujiwara
##wijk
banu
mos
viewership
inherently
##rden
creighton
deficient
saxons
swanson
faisal
##walker
exemplary
grasp
shinto
##zno
arrivals
gastropoda
hb
luxurious
sly
##plants
malibu
choctaw
hao
orphaned
szczecin
##nwick
carrington
catalunya
valencian
5a
melrose
dough
constrained
percival
racially
relic
simons
##tters
dim
konigsberg
lyceum
##ldi
boar
classify
drastic
flush
looted
consular
##ppler
notts
##otter
amiens
blackwood
penitentiary
pretending
reuse
##aland
corinth
peacefully
stroud
arthritis
duly
##ogenic
##vered
gower
pitted
383
iq
patrolling
##oris
fbs
huntingdon
##ellus
macpherson
verizon
##sna
separatist
##geal
##inous
##−1
grooves
impedance
silvio
##irs
heterosexual
##mbit
hardest
unearthed
##blatt
##wk
ecw
tatiana
brexit
convocation
harmonies
lexical
undergoes
##laya
sepals
##riated
attire
cms
efl
barges
lanarkshire
seniority
antelope
hedgehog
journalistic
microbial
villeneuve
##goku
50s
consolation
midsummer
rodolfo
haunting
hooked
horde
##jay
asha
slug
ze
##cute
##nom
##avian
##rene
didier
flaming
guinean
##heet
##ometry
seung
##alie
fills
skulls
##ttel
binh
bosco
pla
##bani
##ctum
##cue
##inder
##phala
vidyalaya
##gement
begum
rubens
cassie
a4
poplar
aek
prado
sherry
ural
quechua
metaphysics
rahul
ros
jody
gunmen
##iad
##rby
fledgling
mf
gregor
##dford
sacrament
accumulate
##mena
bethune
tolerate
bedrock
eh
flashes
##ructure
chandigarh
##ergic
##pere
bash
cloak
fernandes
marge
spirited
capo
dispersion
dm
vertebrate
pigment
chadwick
niigata
overcoming
wildcard
##hail
##tries
##bug
##dee
absurd
disappearing
hiram
##ingian
phu
sochi
##chins
astrology
##omatic
nitrate
fragmented
partido
##inge
bethesda
enoch
##68
alamo
disarmament
lakeside
pdc
##ughty
brood
caen
covent
olav
repulsed
##lcott
##onin
##ryu
362
bret
hathaway
stoppage
championed
dependencies
favors
##hg
##rys
argus
elemental
enjoyment
reboot
stunts
##enza
##nur
tributes
##скии
docking
handicapped
skye
##98
annum
francophone
mauricio
u21
##hau
fluctuations
skirmish
relinquished
##clair
##noll
##planes
gunners
mosley
squared
cristobal
patsy
840
plank
robbers
##dir
aland
staunch
1526
1542
oakley
wealthiest
##rex
##tand
piccolo
##sir
brighter
kowloon
moons
perfume
##dov
thrower
##american
##stones
espanola
heroism
##58
##oan
airspace
endeavor
pedagogical
##hera
jpg
##mper
##rsley
erroneously
jazeera
lipid
mississauga
ppp
tankers
curacao
opposes
seeding
syrup
372
earnhardt
hinton
cyborg
pu
carboniferous
daimler
##ffel
moat
flanking
logistical
sheen
cultura
##nable
devotional
excise
sociedad
##teria
##wayne
piccadilly
quadrangle
extraterrestrial
##iring
##md
footed
tees
##lto
432
milling
##thest
discoverer
dre
reforming
444
dubious
geese
hibernian
insurgent
liaoning
unsure
##rso
calligraphy
##rou
avenge
dummy
englishman
kwazulu
migrating
stadion
##awler
##wel
paulista
373
clemente
melinda
downey
restrained
##inates
cavalier
distracted
intervening
##dication
##e3
inspirational
##chung
braxton
pelham
pvt
calvinist
magma
pied
rajya
vaccination
padilla
sponsoring
##hk
danville
lightcurve
thiruvananthapuram
fascination
identifiable
boyz
unfamiliar
eyewitness
javascript
##balance
iasi
wardrobe
##claim
##gma
##raham
pygmy
dons
guadalcanal
libby
carousel
##belle
##echt
asimov
flamenco
referendums
##iak
entertain
waking
##riers
overrun
bests
ipad
mollusks
regionalliga
##lpa
cossacks
melodrama
##kri
##ographers
donnie
##avio
białystok
uri
399
pedestal
grosse
schulz
surfer
##fone
##berries
##elton
##kton
callaghan
lockhart
##fide
constants
##bei
##enthal
##jor
##lop
incarceration
obs
u20
whitfield
parkland
smoky
##gant
maximal
##acles
777
devonshire
likened
##stes
bump
vazquez
fractures
##quil
monaghan
##byl
##grange
arsenic
saab
timberlake
greed
lad
##chum
autopsy
befriends
daimyo
##udo
##teau
catarina
enclave
pause
##ccio
1567
artes
knob
##clops
##hugh
427
bridgewater
plenipotentiary
thrill
##aches
##eat
2023
modifying
spit
inspections
suspend
##qu
##treet
eater
entertained
stemming
clausura
rocco
worthington
##aff
draining
##plify
##promising
downed
ester
mallory
netting
blessings
conte
spawn
##nze
##trasse
##verein
atm
##bread
##charya
devin
ponte
speedy
youthful
##dsen
poorer
##ppell
fables
kearney
##mell
690
animations
kodak
roh
caterpillar
duma
dea
shipyards
ting
rook
sidelined
supercup
##boa
nano
##weather
chiapas
greta
moro
protege
saxophonists
##rico
cartagena
flavour
oneself
##kad
locating
namco
##akarta
##nator
bless
eerste
##brush
58th
mehmed
piero
atv
pedestrians
tectonic
##dition
conservatism
pelican
##chemistry
whitley
indoors
##78
##⁄4
andrade
brahma
caldera
deserved
##aram
##robe
farley
rosary
##rinus
ardennes
##veld
haines
honesty
mckee
scrolling
freshmen
hers
streamlined
weinstein
##vist
aguilera
hendricks
##axis
bradbury
catastrophe
irregularities
##91
##pical
393
impetus
uptown
dani
jurists
mulder
vow
418
inspected
windy
##clic
coli
gown
##literated
jiri
fitch
##fit
saone
##ywood
millar
registering
##ulding
mau
##tmann
c3
onions
paralysis
swat
tagalog
valery
##yler
667
##odi
aquila
##zinger
423
flashbacks
filipinos
nelly
##nion
apical
accountable
disrepair
humphreys
youngstown
##endorf
3ds
repairing
transnational
unwin
##fox
458
intellect
cossack
structurally
arranges
sloane
##ables
##oper
##rvey
##raph
##dote
##lade
mosul
##dmore
##loy
##bbe
heap
##culus
##rona
realist
unpredictable
testosterone
##69
mountaineering
electronica
henning
walpole
fenerbahce
inflorescence
lineages
##zka
bcs
##sies
promulgated
braunschweig
chola
gianni
##kkonen
alaskan
cbd
dominguez
larva
##ια
anjou
sana
##nake
##raja
bonuses
cristo
drumming
##oxide
##isco
##ningen
recalling
rigged
timeless
dissatisfaction
peanut
riviera
rowley
perugia
panoramic
pun
rents
##napp
caller
departs
gaines
lourdes
mcdermott
yadav
##rdie
avro
rennes
##83
##tex
bulldog
istvan
narayana
paving
stratton
enamel
acknowledges
mahler
##nicki
vastly
1568
nasdaq
pendulum
ultrasound
##logies
##rkin
olympus
strasse
389
ruhr
snp
triggers
callahan
wed
##gion
obligatory
bony
##finger
boa
eugenio
##ource
epilogue
hun
reggio
aga
dmitri
mahatma
tailored
##obe
##shad
##ticus
citroen
mitigation
sarasota
spalding
geothermal
knopf
fillmore
juliette
meuse
pyotr
waco
##pania
##rney
465
##rash
resilience
sadness
##ikov
##lowe
##orro
gotha
huey
382
xin
##eco
howitzer
830
nicaraguan
##efined
##onzo
richland
##phin
sired
swiftly
zenith
coincidentally
vandals
therapies
770
dignitaries
gladiators
laredo
##lator
##lique
napa
politburo
vibrations
astrophysics
interstellar
##ceras
##etts
##zas
dewitt
dissipated
intersect
sampler
##cosa
##harya
##rrea
ironic
leben
shogunate
##inant
1583
growers
inaccessible
isolate
pea
westinghouse
##cuting
alistair
##racial
proofs
summon
utica
##osphere
##vator
[...]
